/*
 * Copyright (c) 2023 HPMicro
 *
 * SPDX-License-Identifier: BSD-3-Clause
 * Optimisation memory allocation
 */
#include "hpm_common.h"

#define NNoutput &buffer0[0];

/* sram:257448, flash:190864 */
#define PEAK_MEM 257448
#define MODEL_SIZE 190864

static signed char buffer[245760];
static signed char ATTR_RAMFUNC buffer_fast[11688];
static signed char *buffer0 = &buffer[0];
static int16_t *sbuf = (int16_t *)&buffer_fast[0];
static int16_t *kbuf = (int16_t *)&buffer_fast[10824];
const int SBuffer_size = 10824;
const int KBuffer_size = 864;

const unsigned char weight0[432] = {0xf8, 0xf5, 0x05, 0x1c, 0x21, 0xfc, 0x03, 0x0f, 0x06, 0xa1, 0xa1, 0xe4, 0x22, 0x04, 0xfc, 0xd6, 0xdc, 0xf3, 0xea, 0xe7, 0xec, 0x7f, 0x74, 0x3a, 0xf7, 0x0f, 0xfe, 0x12, 0x2e, 0xfa, 0x35, 0x32, 0x0c, 0xd4, 0xc5, 0xef, 0x11, 0x1f, 0x13, 0x24, 0x0f, 0x14, 0x95, 0x81, 0xd2, 0x03, 0x1b, 0x0c, 0x02, 0x09, 0xf8, 0xbe, 0xcd, 0xf4, 0xfc, 0x18, 0xf4, 0x14, 0x0a, 0x00, 0xd3, 0xba, 0x04, 0x3a, 0x66, 0x19, 0x69, 0x64, 0x3e, 0x95, 0x81, 0xc2, 0x05, 0x1f, 0x04, 0x2b, 0x16, 0x17, 0xb4, 0x9b, 0xda, 0x02, 0xfb, 0x03, 0xea, 0xdf, 0x00, 0x8b, 0x81, 0xc6, 0xff, 0x06, 0xfd, 0x21, 0x26, 0x05, 0x66, 0x70, 0x3b, 0x00, 0x01, 0x02, 0xfc, 0x02, 0xfd, 0x06, 0x07, 0xfc, 0xe8, 0x07, 0x07, 0x06, 0x04, 0xe9, 0x47, 0x6e, 0x18, 0xac, 0x97, 0xe2, 0xc2, 0x81, 0xda, 0x36, 0x4c, 0xea, 0xfa, 0xfd, 0x0c, 0xf5, 0x01, 0xeb, 0x27, 0x69, 0x2f, 0xd3, 0x1d, 0x0e, 0xf6, 0xdc, 0x30, 0x26, 0xff, 0xdb, 0x39, 0xe7, 0xdf, 0x5d, 0xdd, 0xc6, 0x37, 0x00, 0xc9, 0x7c, 0x81, 0x01, 0x7f, 0xce, 0xb3, 0x2a, 0xf6, 0xe0, 0xd5, 0x56, 0xd5, 0xce, 0x54, 0xe1, 0x28, 0xc7, 0x11, 0xb7, 0x7f, 0xcb, 0xd8, 0x50, 0xd9, 0x2e, 0xbf, 0x14, 0xc9, 0x67, 0xcf, 0x07, 0x17, 0xe5, 0x0b, 0xe2, 0x14, 0xfd, 0xff, 0x02, 0xfa, 0xff, 0xfa, 0x05, 0x00, 0xfd, 0x02, 0x0b, 0xfc, 0x42, 0x46, 0x11, 0x73, 0x6b, 0x3c, 0x00, 0xf8, 0x01, 0xd3, 0xd5, 0xf9, 0x87, 0x81, 0xc4, 0x19, 0x1c, 0x12, 0x8f, 0x81, 0xc8, 0xf9, 0xe5, 0xfe, 0x2a, 0x28, 0x14, 0xf2, 0xfc, 0x03, 0x0b, 0x0c, 0x07, 0xf2, 0xef, 0xeb, 0x34, 0x43, 0x1e, 0x0e, 0x18, 0x00, 0x03, 0x1b, 0xf6, 0x23, 0x54, 0xd2, 0xff, 0x6b, 0xda, 0x1c, 0x10, 0x0b, 0x69, 0x4f, 0x1d, 0x7f, 0x70, 0x04, 0xee, 0xf8, 0x1c, 0x21, 0x06, 0x3e, 0x3f, 0x25, 0x2e, 0x07, 0x01, 0x0c, 0xea, 0xf4, 0xee, 0x03, 0x0e, 0x02, 0x3d, 0x24, 0x25, 0x81, 0xac, 0xb2, 0x44, 0x3b, 0x2a, 0xfa, 0xfe, 0x02, 0x0b, 0x07, 0x03, 0xf0, 0xfa, 0xf8, 0xcc, 0x23, 0x10, 0xae, 0xfa, 0x5a, 0x0e, 0xe1, 0x11, 0xb4, 0x56, 0xf7, 0x81, 0x3a, 0x46, 0xd7, 0xf7, 0x2f, 0xed, 0x28, 0xea, 0xd3, 0x35, 0xf8, 0xd6, 0x1b, 0x0d, 0x21, 0xed, 0xf1, 0x5a, 0xd8, 0xcc, 0x41, 0x0e, 0xae, 0x0d, 0xdf, 0x14, 0x74, 0x92, 0xfa, 0x7f, 0xca, 0xb4, 0xe7, 0x17, 0x04, 0x0a, 0xd6, 0x20, 0x24, 0xef, 0xed, 0x1b, 0x2d, 0xfe, 0xf9, 0x04, 0x09, 0x0c, 0x03, 0x05, 0x45, 0x48, 0x2a, 0x88, 0x81, 0xc6, 0xe0, 0xcc, 0xf1, 0x30, 0x2a, 0x08, 0xf3, 0xfd, 0x03, 0x16, 0x0d, 0x05, 0x01, 0xfc, 0x03, 0xf7, 0x03, 0xfc, 0x09, 0xfe, 0x01, 0xfd, 0xfa, 0xfd, 0x26, 0x34, 0xf7, 0xd2, 0xd0, 0x0c, 0x02, 0xfe, 0xff, 0x71, 0x7f, 0x27, 0xa0, 0x89, 0xda, 0xe4, 0x00, 0xee, 0x08, 0x2d, 0xf8, 0xcd, 0xa3, 0x04, 0x19, 0x17, 0xf4, 0x7c, 0x6f, 0x08, 0x95, 0x97, 0xbe, 0x07, 0x34, 0x2a, 0x6e, 0x7f, 0x26, 0x57, 0x41, 0x16, };
const int32_t bias0[16] = {6049, 21089, 15990, 1889, 5592, 16431, 3304, 3778, 1471, 45133, 4471, 15590, 11847, 3597, 3747, 24560, };
const float scales0[16] = {0.02362162843016633, 0.005327493399059467, 0.008556517816846692, 0.03646057128102096, 0.015635636038502005, 0.005199143573425917, 0.031030948195919845, 0.018768482378225572, 0.079964582803227, 0.0020929236939484642, 0.017115397649003584, 0.00838858560688631, 0.009851668744138781, 0.03669557690208098, 0.03728683702159917, 0.004555253636034784, };
const int32_t shift0[16] = {-5, -7, -6, -4, -5, -7, -5, -5, -3, -8, -5, -6, -6, -4, -4, -7, };
const int32_t multiplier0[16] = {1623265945, 1464410235, 1175998854, 1252775690, 1074472727, 1429129703, 2132430523, 1289760288, 1373781072, 1150596969, 1176161171, 1152918427, 1354003042, 1260850422, 1281165965, 1252138585, };
const unsigned char CHWweight1[144] = {0xfe, 0xff, 0x11, 0x01, 0x0d, 0x7f, 0x01, 0xfa, 0x0c, 0xf7, 0x08, 0x0c, 0x03, 0x81, 0xcb, 0xed, 0xd1, 0x23, 0xfd, 0xf9, 0x09, 0x06, 0x54, 0x7f, 0xfd, 0xfd, 0x0e, 0x01, 0x06, 0x00, 0x03, 0x81, 0x07, 0x00, 0x07, 0xff, 0x03, 0xfd, 0xfc, 0xfe, 0x81, 0x7b, 0x01, 0x01, 0xf8, 0x06, 0x07, 0xf5, 0x0f, 0x92, 0x7f, 0xef, 0x2c, 0xe6, 0x00, 0x0c, 0xe6, 0x03, 0xc7, 0x7f, 0xf6, 0x20, 0xe5, 0x01, 0x04, 0xff, 0x06, 0x81, 0x02, 0x02, 0x04, 0x04, 0x01, 0x0c, 0xff, 0x02, 0x08, 0x81, 0x04, 0xf9, 0x10, 0xdf, 0x65, 0x03, 0x02, 0x41, 0x2d, 0x16, 0x81, 0xd1, 0x01, 0xff, 0xd4, 0xf9, 0xfb, 0x7f, 0x05, 0x08, 0xb3, 0xff, 0xf8, 0x07, 0x07, 0x7f, 0x97, 0xf4, 0x3b, 0xd0, 0x0b, 0xe6, 0x0c, 0x02, 0x9f, 0xcc, 0xf3, 0x7f, 0x1d, 0x00, 0xf8, 0x02, 0x03, 0x08, 0x81, 0x02, 0x00, 0xf5, 0xfc, 0x79, 0xee, 0x01, 0x81, 0x0b, 0x03, 0xf6, 0x0a, 0x04, 0x17, 0xea, 0xfb, 0x7f, 0xc3, 0xfd, 0xfa, 0x0a, };
const int32_t offsetBias1[16] = {18203, 11777, 5090, 1618, 3777, 3513, 17155, 857, 11560, 6961, 232, 2931, 3370, 15850, 33521, 13277, };
const int32_t offsetRBias1[16] = {0, 0, 0, 0, 0, 0, 0, 0, 0, 0, 0, 0, 0, 0, 0, 0, };
const float scales1[16] = {0.00652304757386446, 0.008439085446298122, 0.013566381298005581, 0.01112413965165615, 0.030926350504159927, 0.06159255653619766, 0.012731680646538734, 0.012521736323833466, 0.010619410313665867, 0.017075179144740105, 0.011844704858958721, 0.04349730536341667, 0.03589880093932152, 0.006655496079474688, 0.0038195967208594084, 0.008999345824122429, };
const int32_t shift1[16] = {-7, -6, -6, -6, -5, -4, -6, -6, -6, -5, -6, -4, -4, -7, -8, -6, };
const int32_t multiplier1[16] = {1793041664, 1159859072, 1864549248, 1528890112, 2125242624, 2116304128, 1749828864, 1720974336, 1459520640, 1173397376, 1627923840, 1494556032, 1233473408, 1829448832, 2099845504, 1236860672, };
const unsigned char weight2[256] = {0xda, 0x30, 0x1b, 0x66, 0x0e, 0xf4, 0x04, 0x17, 0x0a, 0x1f, 0xdf, 0x26, 0x8c, 0x15, 0x7f, 0xe8, 0x0d, 0x07, 0x0e, 0x10, 0x00, 0x81, 0x1b, 0x02, 0xfe, 0x06, 0x0e, 0x76, 0x39, 0xf5, 0xff, 0xef, 0xf8, 0xe9, 0xe0, 0xba, 0xff, 0x00, 0xfe, 0xed, 0xff, 0x0f, 0x06, 0x18, 0xdd, 0x81, 0x46, 0x21, 0xd1, 0xee, 0xcb, 0x20, 0x2c, 0x21, 0x08, 0x02, 0x1c, 0xf4, 0x7f, 0x2e, 0xda, 0x04, 0xa8, 0x31, 0xf5, 0x0f, 0x07, 0x87, 0x1c, 0x2c, 0xe6, 0x7f, 0x43, 0x1b, 0x2e, 0x03, 0x54, 0x26, 0x57, 0xee, 0x85, 0x22, 0x1b, 0xb6, 0x48, 0x21, 0xfa, 0x81, 0xb6, 0x2e, 0x9d, 0x1d, 0x27, 0x51, 0xfc, 0x41, 0xfa, 0x15, 0x5f, 0xe3, 0xd1, 0x06, 0x05, 0xfd, 0xd9, 0x13, 0x7f, 0x11, 0xe0, 0x35, 0x1d, 0xfc, 0x35, 0x4d, 0xf7, 0x05, 0xfd, 0xf7, 0x81, 0xee, 0x01, 0x06, 0xf3, 0x08, 0x05, 0x03, 0x00, 0x1c, 0x2c, 0xcc, 0xc9, 0xc8, 0xf7, 0x40, 0xde, 0x7f, 0xcf, 0x60, 0xd9, 0x52, 0xcf, 0x3a, 0xc3, 0xd3, 0x71, 0x7f, 0x0f, 0xf1, 0x13, 0x01, 0x5d, 0x3f, 0xe0, 0xbe, 0xe2, 0xfe, 0xf5, 0xfa, 0xf3, 0x30, 0xef, 0xfe, 0x9f, 0xee, 0x1c, 0x81, 0xfe, 0x23, 0xd7, 0x18, 0x42, 0x90, 0xe7, 0x52, 0x4b, 0xf5, 0xb9, 0x7f, 0xd9, 0xe9, 0xe4, 0x07, 0x0a, 0xf6, 0x08, 0xde, 0xf6, 0x0c, 0xfd, 0x09, 0xea, 0xc2, 0xcb, 0xf9, 0x04, 0x08, 0xfd, 0x03, 0xfc, 0x3a, 0x01, 0xdd, 0xf6, 0x07, 0xfd, 0x0d, 0x1a, 0x7f, 0xac, 0x13, 0x1c, 0x26, 0xf6, 0xe9, 0xdd, 0x7f, 0xe7, 0x56, 0xfd, 0xd3, 0x26, 0xb7, 0xa5, 0x13, 0x00, 0xee, 0x23, 0x87, 0x00, 0xa4, 0x04, 0x16, 0x3a, 0x1d, 0xd7, 0xde, 0x8a, 0x0b, 0x81, 0x12, 0xf5, 0xee, 0x14, 0xf6, 0x12, 0xf6, 0xb2, 0x03, 0xf0, 0x81, 0x0e, 0x08, 0xc9, 0xf2, 0xfc, 0xde, };
const int32_t bias2[16] = {-26627, -14955, 16085, -1131, -41497, -3382, -8802, 7423, -1598, -46226, 26077, 10911, -13410, 15717, 40257, 42236, };
const float scales2[16] = {0.002138471732174801, 0.0013359125229386573, 0.0029483387320275536, 0.0023214926687901783, 0.0020376708723521112, 0.0015154376416633782, 0.0022661181547158245, 0.00225604595395695, 0.0019333480881559045, 0.0016808703743828237, 0.0018281336343736639, 0.00298351194310723, 0.003751750078175685, 0.0022329166757131045, 0.0019711622097303536, 0.0017331498317177012, };
const int32_t shift2[16] = {-8, -9, -8, -8, -8, -9, -8, -8, -9, -9, -9, -8, -8, -8, -8, -9, };
const int32_t multiplier2[16] = {1175637268, 1468851353, 1620866359, 1276254092, 1120221409, 1666241308, 1245811631, 1240274380, 2125738703, 1848136521, 2010054188, 1640203037, 2062546418, 1227558924, 1083657885, 1905618393, };
const unsigned char weight3[512] = {0x08, 0x7f, 0xf8, 0x00, 0x14, 0x11, 0x01, 0x4f, 0xe7, 0xde, 0x1e, 0xf3, 0xf8, 0x0e, 0xfd, 0xd1, 0xd7, 0x09, 0xf1, 0x00, 0xfc, 0xee, 0xff, 0xfb, 0xd1, 0x53, 0xfa, 0x29, 0x35, 0xda, 0xe7, 0x7f, 0x52, 0x01, 0xd1, 0x4d, 0x45, 0xe4, 0x7f, 0xe9, 0xf8, 0xf8, 0x51, 0xda, 0x31, 0x2a, 0xcf, 0xeb, 0xfa, 0x07, 0x25, 0x1f, 0xe9, 0x1c, 0xf6, 0xe6, 0xea, 0x81, 0xb6, 0xd9, 0xe6, 0x45, 0x18, 0x9b, 0x64, 0x0f, 0xb8, 0x36, 0xdc, 0x81, 0xaf, 0x0b, 0xd2, 0x01, 0xe3, 0xd3, 0x27, 0x31, 0xba, 0xd3, 0x12, 0x08, 0x2e, 0x1f, 0xf2, 0xf5, 0xd7, 0xe0, 0xf9, 0x02, 0x01, 0x7f, 0xe6, 0x63, 0xd8, 0x30, 0x10, 0xfe, 0xf2, 0x70, 0x1f, 0x65, 0x82, 0xfd, 0x34, 0x1a, 0x79, 0x81, 0x20, 0x92, 0xc7, 0xff, 0x47, 0xe3, 0x1b, 0xf6, 0xb3, 0xdb, 0x0d, 0xfd, 0xe1, 0xeb, 0x6f, 0xe3, 0xfe, 0x0c, 0x7f, 0x19, 0x04, 0x2a, 0x03, 0xff, 0xf0, 0xf5, 0x06, 0x81, 0xf2, 0x39, 0x04, 0x0f, 0x03, 0xec, 0x0a, 0xc0, 0x06, 0x7f, 0x01, 0xfb, 0xf3, 0xfd, 0xfe, 0x01, 0xf9, 0xfc, 0x1e, 0xff, 0x04, 0x02, 0x1f, 0x0a, 0xfd, 0x01, 0xc4, 0xda, 0x21, 0xab, 0xef, 0x1d, 0x58, 0x25, 0x1f, 0x7f, 0xc1, 0xb6, 0xfa, 0x0b, 0xbd, 0xdc, 0xeb, 0xb4, 0xed, 0xe8, 0xfb, 0xde, 0x81, 0xfe, 0x68, 0xd0, 0x1d, 0x43, 0x24, 0x0b, 0xf0, 0x11, 0x2c, 0xd3, 0xe7, 0x81, 0x9d, 0x2a, 0xf9, 0x3e, 0xbc, 0x96, 0xa0, 0xce, 0xef, 0x10, 0x10, 0x03, 0xc2, 0x1c, 0x22, 0xeb, 0xc6, 0x12, 0x40, 0x24, 0x36, 0x5f, 0x81, 0xc4, 0xe6, 0x10, 0x01, 0x12, 0x81, 0xbc, 0x2b, 0xac, 0x72, 0x18, 0x0a, 0x45, 0xb3, 0xa7, 0x91, 0xce, 0x31, 0x19, 0x9f, 0x2a, 0xdc, 0xe6, 0x57, 0x20, 0xe5, 0xd6, 0xdf, 0xc4, 0xd0, 0xe6, 0xe8, 0x24, 0x81, 0x89, 0x12, 0x81, 0xfb, 0x09, 0x03, 0xfc, 0xfc, 0x1c, 0x10, 0xda, 0xfb, 0xed, 0xff, 0x02, 0xf5, 0x0d, 0x18, 0x00, 0x1c, 0xbf, 0xf4, 0x3c, 0x27, 0xd8, 0xb6, 0x0a, 0x81, 0x8b, 0x26, 0x4f, 0x38, 0x2c, 0xb1, 0xf2, 0x26, 0x7f, 0x48, 0xfd, 0xa0, 0xf0, 0x16, 0x25, 0x1a, 0xaa, 0x5e, 0x15, 0x56, 0x1d, 0xe6, 0xf4, 0xeb, 0xf0, 0x05, 0x7f, 0x1d, 0xe8, 0xd6, 0xd9, 0xfc, 0x34, 0xdc, 0xb9, 0x23, 0x20, 0x7f, 0xea, 0x32, 0x36, 0xc4, 0xf1, 0x28, 0xff, 0x49, 0xf5, 0xf1, 0x07, 0xfa, 0xd3, 0x52, 0x2a, 0xdd, 0x01, 0x56, 0xdd, 0xa1, 0xfc, 0x1e, 0x1c, 0xee, 0x2a, 0x1a, 0xa6, 0x81, 0xb5, 0xad, 0x26, 0xe0, 0xf7, 0x7f, 0x14, 0x77, 0xd2, 0xe7, 0xe3, 0xcb, 0xd6, 0xee, 0x30, 0xf2, 0xe8, 0x4d, 0x04, 0x15, 0xf9, 0xbf, 0xf9, 0x0e, 0xec, 0xc4, 0xfc, 0x14, 0x9a, 0x38, 0x1d, 0x81, 0x04, 0xf4, 0x8a, 0xfb, 0xe9, 0xfd, 0xfe, 0x0d, 0xff, 0xfd, 0x7f, 0x16, 0xaf, 0xfe, 0xf3, 0x02, 0x0f, 0xf8, 0x57, 0xc7, 0xf9, 0x16, 0xdb, 0x42, 0xfa, 0x10, 0xf7, 0x7f, 0x57, 0x2b, 0xe4, 0x1f, 0x31, 0x15, 0x0b, 0x02, 0xcc, 0x03, 0x10, 0xf9, 0x00, 0x05, 0x81, 0xf4, 0x47, 0xf6, 0x07, 0xf0, 0xf4, 0xff, 0xbf, 0x16, 0xfa, 0x7f, 0xdc, 0xfc, 0x04, 0x35, 0xec, 0xda, 0xed, 0x0e, 0x31, 0x0c, 0x39, 0xc6, 0xfe, 0xf3, 0x23, 0xfa, 0xf2, 0x10, 0xea, 0xeb, 0x90, 0x4e, 0x81, 0x20, 0xcd, 0xd3, 0x0a, 0xf8, 0x40, 0x81, 0x09, 0xb9, 0x78, 0x95, 0x02, 0xf1, 0x0d, 0x19, 0x02, 0xc3, 0x12, 0xb7, 0x48, 0x5b, 0x0c, 0x14, 0x18, 0x27, 0x2a, 0xfc, 0x18, 0x25, 0xf8, 0x2c, 0xf0, 0x81, 0xf3, 0x2f, 0xed, 0xda, 0x14, 0x16, 0xf6, 0x05, 0x00, 0xca, 0x41, 0x04, 0xe7, 0x9d, 0x81, 0xee, 0x26, 0xae, 0xb0, 0xf4, 0xdf, };
const int32_t bias3[32] = {2356, -199, 705, -111, 241, -322, -563, -248, 1501, 2919, -160, -386, -754, 16061, -143, -319, -313, -512, -541, -199, -280, -386, -58, -414, -535, -35, 4131, 383, -1024, -96, -223, 1612, };
const float scales3[32] = {0.016433716769974537, 0.019541775116192425, 0.0072919945875903665, 0.011192884832544405, 0.008914344313425623, 0.015310888558351832, 0.007729905862275808, 0.00886632716399475, 0.049356591029498735, 0.0383904354192617, 0.007700092027217986, 0.008485269895470287, 0.00893620192497152, 0.004903713229942454, 0.010453489716788111, 0.009011749164505612, 0.02565450516356822, 0.037122339864839475, 0.00629850499198425, 0.011765557917992714, 0.013521167138072474, 0.00900303135351384, 0.010369891118899924, 0.008056730674594979, 0.04632718833931585, 0.011666362293413016, 0.015162676614127218, 0.009933420602893796, 0.019002573215429613, 0.009458959234085287, 0.011532924230561013, 0.03278372708865692, };
const int32_t shift3[32] = {-5, -5, -7, -6, -6, -6, -7, -6, -4, -4, -7, -6, -6, -7, -6, -6, -5, -4, -7, -6, -6, -6, -6, -6, -4, -6, -6, -6, -5, -6, -6, -4, };
const int32_t multiplier3[32] = {1129316417, 1342900560, 2004408210, 1538338378, 1225178153, 2104312500, 2124780344, 1218578727, 1695879555, 1319085317, 2116585180, 1166206614, 1228182241, 1347922429, 1436716687, 1238565374, 1762964171, 1275513885, 1731319869, 1617045967, 1858335061, 1237367207, 1425226983, 1107308632, 1591790071, 1603412624, 2083942406, 1365238932, 1305846888, 1300029458, 1585073037, 1126440285, };
const unsigned char CHWweight4[288] = {0x1e, 0x31, 0x07, 0x51, 0x7f, 0x36, 0x36, 0x59, 0x24, 0x15, 0x4f, 0x33, 0x2e, 0x7f, 0x5a, 0x1e, 0x3d, 0x34, 0x26, 0x43, 0x22, 0x51, 0x7f, 0x38, 0x3b, 0x53, 0x23, 0x21, 0x45, 0x2e, 0x41, 0x7f, 0x55, 0x22, 0x4c, 0x34, 0xed, 0xcc, 0xdd, 0xc9, 0x81, 0xa5, 0xd4, 0xa2, 0xbc, 0xe5, 0xc9, 0xe1, 0xbf, 0x81, 0xba, 0xc9, 0x9d, 0xc8, 0x17, 0x38, 0x27, 0x42, 0x7f, 0x49, 0x31, 0x59, 0x33, 0xe6, 0xbd, 0xd0, 0xbd, 0x81, 0xb2, 0xda, 0xbb, 0xda, 0xd0, 0xb4, 0xd7, 0xaf, 0x81, 0xa8, 0xda, 0xac, 0xba, 0x3b, 0x4b, 0x17, 0x4d, 0x7f, 0x44, 0x1c, 0x43, 0x2c, 0xe0, 0xc1, 0xdc, 0xc4, 0x81, 0xb0, 0xde, 0xae, 0xc6, 0x25, 0x4b, 0x2d, 0x3f, 0x7f, 0x53, 0x21, 0x42, 0x2a, 0x1e, 0x3e, 0x20, 0x49, 0x7f, 0x50, 0x31, 0x53, 0x32, 0x29, 0x31, 0x26, 0x6d, 0x7f, 0x63, 0x4c, 0x57, 0x39, 0x23, 0x39, 0x17, 0x4f, 0x7f, 0x40, 0x36, 0x59, 0x2f, 0x17, 0x55, 0x3c, 0x2e, 0x7f, 0x57, 0x17, 0x32, 0x22, 0x17, 0x38, 0x2c, 0x3a, 0x7f, 0x62, 0x27, 0x4c, 0x3b, 0xe8, 0xc8, 0xd3, 0xcf, 0x8b, 0x81, 0xda, 0x9b, 0xa0, 0x29, 0x42, 0x22, 0x44, 0x7f, 0x4f, 0x28, 0x4f, 0x34, 0x1c, 0x36, 0x1f, 0x3e, 0x7f, 0x53, 0x29, 0x59, 0x3a, 0x21, 0x46, 0x2e, 0x3c, 0x7f, 0x57, 0x1b, 0x45, 0x33, 0xde, 0xb7, 0xd6, 0xc0, 0x81, 0xad, 0xd6, 0xb3, 0xca, 0x1d, 0x36, 0x1c, 0x49, 0x7f, 0x45, 0x3b, 0x65, 0x39, 0x25, 0x43, 0x26, 0x3b, 0x7f, 0x51, 0x1e, 0x48, 0x30, 0xcf, 0xb2, 0xc6, 0xae, 0x81, 0x9d, 0xcf, 0x9e, 0xb0, 0x1f, 0x3d, 0x1f, 0x3e, 0x7f, 0x53, 0x20, 0x50, 0x3a, 0x25, 0x31, 0x13, 0x4d, 0x7f, 0x48, 0x2a, 0x5c, 0x36, 0x22, 0x3e, 0x21, 0x3d, 0x7f, 0x47, 0x27, 0x50, 0x2f, 0x42, 0x7c, 0x72, 0x3b, 0x7f, 0x7c, 0x00, 0x07, 0x12, 0xe9, 0xbf, 0xce, 0xca, 0x81, 0xa5, 0xd5, 0xa9, 0xc3, 0xe7, 0xc0, 0xd0, 0xc3, 0x81, 0xb0, 0xd9, 0xb9, 0xd7, 0xeb, 0xc7, 0xd6, 0xc8, 0x81, 0xa9, 0xd8, 0xb0, 0xce, };
const int32_t offsetBias4[32] = {77506, 71869, 88875, 76198, -4322, 15504, 77233, -150, -24425, 3936, -9787, 73671, 74457, 32618, 74591, 69528, 90239, 59884, 76297, 73988, 73798, -34721, 93943, 71981, -75182, 73521, 37372, 71973, 89970, -33027, 3172, 88272, };
const int32_t offsetRBias4[32] = {0, 0, 0, 0, 0, 0, 0, 0, 0, 0, 0, 0, 0, 0, 0, 0, 0, 0, 0, 0, 0, 0, 0, 0, 0, 0, 0, 0, 0, 0, 0, 0, };
const float scales4[32] = {0.002320515690371394, 0.0027248586993664503, 0.004116334021091461, 0.0032354211434721947, 0.003539330791682005, 0.0027980234008282423, 0.003707733703777194, 0.0035583723802119493, 0.0014409429859369993, 0.0019851215183734894, 0.00397754181176424, 0.0036347019486129284, 0.00437038904055953, 0.0064155482687056065, 0.0026436736807227135, 0.0030859143007546663, 0.0018543307669460773, 0.0011421977542340755, 0.004480146802961826, 0.003795476397499442, 0.0027152616530656815, 0.004370084032416344, 0.0038077039644122124, 0.0035980986431241035, 0.0025146270636469126, 0.0033940060529857874, 0.0034703013952821493, 0.003593088360503316, 0.001674923812970519, 0.0038532849866896868, 0.0034021479077637196, 0.001558189163915813, };
const int32_t shift4[32] = {-8, -8, -7, -8, -8, -8, -8, -8, -9, -8, -7, -8, -7, -7, -8, -8, -9, -9, -7, -8, -8, -7, -8, -8, -8, -8, -8, -8, -9, -8, -8, -9, };
const int32_t multiplier4[32] = {1275716992, 1498006912, 1131489280, 1778691584, 1945767680, 1538229632, 2038348160, 1956235904, 1584333568, 1091332096, 1093338368, 1998198528, 1201323392, 1763492480, 1453374976, 1696499328, 2038858240, 1255859712, 1231493376, 2086585216, 1492730880, 1201239552, 2093307392, 1978075648, 1382430848, 1865874560, 1907818368, 1975321216, 1841598208, 2118365824, 1870350592, 1713247104, };
const unsigned char weight5[512] = {0xb8, 0xce, 0x1b, 0x20, 0xe8, 0xee, 0x21, 0xf9, 0x7f, 0x64, 0xb9, 0xd7, 0x21, 0x98, 0x0b, 0xe3, 0x0e, 0x24, 0xf8, 0x2a, 0xad, 0x11, 0xf0, 0xe3, 0x42, 0x0e, 0x16, 0x08, 0x03, 0x0c, 0x07, 0xdf, 0xe7, 0xf8, 0x9c, 0x05, 0x34, 0xbd, 0xf9, 0x51, 0x02, 0x02, 0x2d, 0x35, 0x5a, 0xec, 0x30, 0xd4, 0xdf, 0x04, 0x51, 0x34, 0x47, 0x68, 0x81, 0x6d, 0x1d, 0xf0, 0xed, 0x28, 0xe9, 0x6c, 0x0f, 0xfe, 0xe8, 0x7f, 0xda, 0xf1, 0x01, 0x38, 0xf5, 0x0c, 0x00, 0xff, 0xdb, 0x1c, 0xd3, 0xbc, 0xd4, 0x20, 0x11, 0x1a, 0xbd, 0xbc, 0x05, 0xed, 0x0d, 0xf0, 0xcc, 0x08, 0xcb, 0xd8, 0xdf, 0xfd, 0xe3, 0xed, 0xe9, 0x0a, 0xef, 0x07, 0x0f, 0xd4, 0x65, 0xf8, 0xcf, 0xf7, 0x81, 0x71, 0xdc, 0xe3, 0x4a, 0xe4, 0xf0, 0xe3, 0x1a, 0xe4, 0xe2, 0x02, 0x03, 0x1e, 0xd8, 0xe8, 0xe4, 0x3a, 0x2b, 0xf1, 0x86, 0xf9, 0xc7, 0x84, 0x27, 0xc6, 0xce, 0x02, 0xe6, 0x76, 0x1c, 0xf6, 0x24, 0x4e, 0xdf, 0x72, 0x26, 0x81, 0xc8, 0xdc, 0x0c, 0xfe, 0xb8, 0xe4, 0x26, 0xf6, 0x04, 0xf2, 0x92, 0x36, 0xf6, 0xf0, 0xbf, 0xe9, 0x50, 0x23, 0x0c, 0x0f, 0xe2, 0x0d, 0xff, 0xfd, 0x00, 0xdd, 0xf8, 0x06, 0xf6, 0x01, 0x0f, 0xec, 0x15, 0x0b, 0xf9, 0xc5, 0x00, 0xfe, 0xfa, 0x0c, 0x0e, 0xdf, 0xff, 0xf8, 0x81, 0xf7, 0xed, 0x95, 0x9d, 0x14, 0x1e, 0xe6, 0xf3, 0x16, 0x13, 0xfe, 0x15, 0xf4, 0xee, 0x02, 0x00, 0xf1, 0xe9, 0xfd, 0x81, 0x0b, 0x0e, 0xf3, 0xfe, 0x02, 0x05, 0xf3, 0x04, 0xfb, 0xe0, 0xfb, 0xbe, 0xfb, 0x08, 0xde, 0x33, 0xef, 0xeb, 0x21, 0x10, 0xfe, 0xfa, 0xf3, 0x0a, 0xfb, 0x15, 0xfb, 0x13, 0x00, 0x15, 0xf2, 0x0d, 0x1a, 0x03, 0x47, 0x03, 0x04, 0xf0, 0x01, 0x36, 0x3c, 0x0f, 0x2b, 0x81, 0x09, 0x03, 0x5a, 0x08, 0xf1, 0xf4, 0xfa, 0x17, 0xa2, 0x18, 0xdd, 0xe7, 0xf9, 0x2f, 0xed, 0x06, 0xd2, 0x7f, 0x17, 0x0f, 0x53, 0xec, 0xff, 0xf9, 0x13, 0x02, 0xc6, 0xd7, 0xf9, 0x09, 0x12, 0xff, 0xfa, 0x0d, 0xf9, 0xae, 0x0b, 0x33, 0x29, 0x1b, 0x01, 0xc4, 0x18, 0x1a, 0x61, 0x45, 0x1d, 0x26, 0x69, 0xf0, 0x29, 0x06, 0x0a, 0xf0, 0xf8, 0xf8, 0x10, 0xff, 0x01, 0x7f, 0xf0, 0x35, 0xe6, 0xc2, 0xfb, 0xea, 0x0a, 0xfa, 0xb9, 0xda, 0x4b, 0xfe, 0xee, 0x30, 0x81, 0xde, 0xe6, 0xc1, 0xf7, 0x10, 0x04, 0xec, 0xf6, 0xee, 0x01, 0xc1, 0x11, 0x9d, 0x1c, 0xe8, 0x98, 0x0c, 0x1b, 0xf9, 0xce, 0xec, 0x24, 0xcc, 0x03, 0x12, 0xe8, 0x22, 0xf5, 0x7f, 0xff, 0x2b, 0x07, 0x0f, 0x01, 0xd7, 0x0f, 0xf0, 0xfb, 0x04, 0xd7, 0x04, 0xf4, 0x07, 0x88, 0xd3, 0xfe, 0x0d, 0xf3, 0x1f, 0x81, 0x17, 0xfe, 0xf0, 0xd9, 0xe5, 0x21, 0x1a, 0xaf, 0x24, 0xaa, 0xec, 0x43, 0xeb, 0x7f, 0xb1, 0xdf, 0x0e, 0x4d, 0xe8, 0xbc, 0xe4, 0xe8, 0xe8, 0x2d, 0x29, 0x07, 0x43, 0xce, 0x1b, 0x3a, 0x02, 0xea, 0xf3, 0x27, 0x09, 0xd3, 0xf5, 0x12, 0x35, 0x20, 0x16, 0xfb, 0x12, 0xcd, 0xf1, 0x1b, 0x9b, 0x2f, 0x06, 0xbf, 0x39, 0x09, 0x01, 0x8b, 0x2d, 0xee, 0xf5, 0x1d, 0x81, 0x06, 0xe9, 0xd4, 0xf2, 0x08, 0x72, 0xe8, 0xe0, 0x2d, 0x0b, 0xef, 0xf3, 0x7f, 0x41, 0x7f, 0x3b, 0xd6, 0x0f, 0xb7, 0xd1, 0x9f, 0x1d, 0x9a, 0x24, 0xdf, 0x22, 0x3b, 0xd0, 0x12, 0xe9, 0xf9, 0x06, 0xf4, 0x06, 0x0e, 0x25, 0xf3, 0x89, 0xe9, 0x2c, 0xe7, 0x5d, 0x21, 0xc6, 0x03, 0x9f, 0x06, 0xc6, 0x35, 0x27, 0x3c, 0x27, 0x3a, 0x15, 0xc5, 0x81, 0xd6, 0x4b, 0x17, 0xdf, 0xfa, 0x01, 0xc9, 0x2a, 0xfb, 0x16, 0x39, 0x41, 0x1d, 0x17, 0x5b, 0xea, 0xf6, 0x5d, 0xfd, };
const int32_t bias5[16] = {22397, -46751, 15522, 64602, 11108, 29274, 18677, -31614, -1423, -28472, 64271, -5954, -41011, 798, -26172, -31349, };
const float scales5[16] = {0.0029870218397421446, 0.003457594511535042, 0.002066070831067322, 0.002289269416658381, 0.0023522667410717, 0.0028082784162796097, 0.0038907707371497622, 0.003011010201058697, 0.004490938038549556, 0.002937596124288024, 0.004016919553109265, 0.0030393593535004895, 0.0031052611243171883, 0.0020101832403405144, 0.0023952100850447183, 0.0031036940555129104, };
const int32_t shift5[16] = {-8, -8, -8, -8, -8, -8, -8, -8, -7, -8, -7, -8, -8, -8, -8, -8, };
const int32_t multiplier5[16] = {1642132623, 1900832685, 1135834451, 1258539171, 1293172317, 1543867386, 2138973833, 1655320364, 1234459648, 1614960548, 1104162439, 1670905475, 1707135357, 1105109923, 1316780670, 1706273852, };
const unsigned char weight6[1024] = {0xf7, 0xd6, 0xd4, 0x7f, 0x02, 0x0b, 0xe1, 0xf6, 0x29, 0xe1, 0xdb, 0xe3, 0xfd, 0xf1, 0xf4, 0xbb, 0xd9, 0x38, 0xed, 0xbd, 0x28, 0x20, 0x43, 0xe3, 0x26, 0x43, 0xf9, 0x7f, 0x33, 0xcd, 0x47, 0xc9, 0x23, 0xc8, 0xee, 0x19, 0x20, 0xf6, 0x48, 0xe4, 0xe4, 0xee, 0xec, 0x81, 0xe2, 0x0c, 0xde, 0x26, 0xf7, 0xb7, 0x25, 0xb5, 0xd2, 0xe2, 0x2a, 0x39, 0x7f, 0xce, 0xc5, 0xc6, 0x14, 0x11, 0x33, 0x22, 0x06, 0xe5, 0x12, 0x48, 0x05, 0x15, 0xfa, 0xd6, 0x39, 0xf7, 0xe3, 0x7f, 0x0f, 0x0e, 0x07, 0xfe, 0x30, 0xa0, 0xbe, 0x7e, 0xf2, 0xf2, 0xd4, 0xae, 0x25, 0xc1, 0x8b, 0x87, 0xf8, 0x81, 0x25, 0xe9, 0x2a, 0xaf, 0xc3, 0x6f, 0x0d, 0xd9, 0x9a, 0xdf, 0x19, 0xcb, 0xb7, 0xa7, 0xe1, 0x81, 0x16, 0xbf, 0xfa, 0x7f, 0x23, 0xc7, 0xd8, 0xdc, 0xe9, 0xdc, 0xf2, 0xd5, 0x1c, 0xc4, 0xc5, 0x1a, 0xc8, 0xe2, 0xdf, 0x48, 0x09, 0xdb, 0x37, 0x02, 0x03, 0xe0, 0xf9, 0x04, 0x81, 0xfd, 0x34, 0xfb, 0xe9, 0x2a, 0x5d, 0x35, 0xe4, 0x9a, 0x0e, 0xdb, 0x31, 0x07, 0x07, 0x49, 0x4a, 0x7f, 0xe3, 0x24, 0xfc, 0x38, 0xf7, 0xfc, 0xec, 0x7f, 0x18, 0x10, 0xdb, 0xd9, 0xf4, 0x01, 0x29, 0x43, 0xfe, 0xe2, 0xcb, 0x09, 0x8d, 0x15, 0xfe, 0x3d, 0xea, 0x2d, 0x7f, 0x0c, 0xf5, 0xe9, 0x1c, 0xc6, 0x06, 0x13, 0x27, 0x09, 0xdb, 0x81, 0xf0, 0xae, 0x15, 0xea, 0x07, 0xf0, 0xf1, 0x1d, 0xdb, 0xd8, 0x2c, 0xef, 0x0b, 0xfc, 0x1d, 0x17, 0xbe, 0xeb, 0x05, 0x6d, 0xdc, 0x81, 0x23, 0xf8, 0x1a, 0x00, 0x1b, 0xef, 0x0b, 0x14, 0x78, 0x08, 0x1c, 0x81, 0x01, 0xf3, 0xf9, 0x03, 0xde, 0x12, 0xee, 0xfb, 0xc0, 0xaa, 0xf4, 0x38, 0x10, 0x81, 0x0f, 0xf9, 0xea, 0x06, 0x09, 0xeb, 0xf5, 0xf7, 0x7d, 0x23, 0xaf, 0x2a, 0x34, 0xe0, 0xea, 0x02, 0x01, 0x1e, 0xd5, 0xca, 0xc5, 0x96, 0xd6, 0xeb, 0xfe, 0x81, 0x09, 0xea, 0x59, 0xf3, 0xc5, 0x18, 0x27, 0x01, 0x64, 0xf9, 0x3c, 0xe4, 0x0f, 0xc4, 0x2e, 0xf1, 0x27, 0x9e, 0x7f, 0xea, 0x10, 0x9c, 0x15, 0xca, 0xfc, 0xf9, 0xff, 0xf0, 0x31, 0xfd, 0x7f, 0x1b, 0xad, 0x23, 0x39, 0xeb, 0xd0, 0xb7, 0xfb, 0x4a, 0x18, 0x19, 0xf4, 0xd6, 0xf5, 0xe8, 0x0f, 0x3f, 0xf4, 0xd0, 0xe6, 0x7f, 0xdf, 0x7f, 0x03, 0x24, 0xed, 0xf4, 0xd9, 0xd9, 0x01, 0xda, 0x3f, 0xeb, 0xc4, 0xfd, 0xf3, 0x2b, 0x42, 0x04, 0xcd, 0xff, 0x68, 0x06, 0x41, 0x14, 0xbe, 0xf3, 0xf5, 0x02, 0xf8, 0x44, 0x7f, 0x40, 0xec, 0x81, 0x13, 0x45, 0x12, 0x05, 0x30, 0xfd, 0x36, 0x02, 0xc3, 0x76, 0x23, 0xf0, 0x08, 0x21, 0xcc, 0x39, 0xed, 0xee, 0xb7, 0xd5, 0x7f, 0xae, 0xd2, 0xe1, 0x1d, 0x2f, 0x13, 0x86, 0x60, 0xc6, 0x79, 0x07, 0x11, 0x6f, 0x53, 0xe6, 0x72, 0xf2, 0xfc, 0x7f, 0xeb, 0x8c, 0xb4, 0x89, 0xdc, 0x46, 0x11, 0xa8, 0xed, 0x77, 0xeb, 0xde, 0xa9, 0xaf, 0x27, 0xdf, 0xc5, 0x81, 0xff, 0x88, 0x1e, 0xcc, 0xb6, 0x03, 0xed, 0x7f, 0x0a, 0xe7, 0xd3, 0xc2, 0x17, 0xdc, 0x06, 0x14, 0x02, 0x06, 0xf7, 0xc3, 0xd7, 0xe2, 0x3d, 0x81, 0xbf, 0x48, 0xda, 0x41, 0xbe, 0x08, 0x15, 0x09, 0x01, 0xd0, 0xac, 0xed, 0xe0, 0x93, 0x2f, 0x28, 0xbd, 0xfe, 0xdd, 0xbf, 0x1e, 0xf9, 0x7f, 0xff, 0xaf, 0x38, 0x41, 0xc3, 0xdd, 0x2f, 0x14, 0x18, 0x2a, 0xff, 0xfb, 0xed, 0xb4, 0xf7, 0x81, 0xf7, 0x4d, 0xec, 0xdc, 0x40, 0x38, 0xd8, 0xf4, 0x1e, 0x7f, 0xe3, 0x19, 0xe7, 0x18, 0xe5, 0x30, 0x24, 0x4c, 0x34, 0x90, 0xc7, 0xcf, 0x8f, 0xfb, 0x7f, 0xe0, 0x3f, 0xf0, 0xee, 0x15, 0xd6, 0xd7, 0x97, 0x28, 0xf8, 0xfd, 0xc0, 0x23, 0xe2, 0xfa, 0xf7, 0xd3, 0xf4, 0xe5, 0xfc, 0xf3, 0x0f, 0xd2, 0x81, 0xf8, 0xdd, 0x1c, 0xfa, 0x28, 0xca, 0xfb, 0xcc, 0xa9, 0xf1, 0xbb, 0xfd, 0x06, 0xfc, 0xb9, 0x81, 0xfa, 0xd4, 0x43, 0xe9, 0x41, 0xd2, 0x18, 0x64, 0xfc, 0xc4, 0x29, 0x00, 0x12, 0xa4, 0x39, 0xe5, 0x7f, 0xf1, 0xe9, 0x01, 0xa6, 0xfb, 0xf6, 0x7f, 0xfa, 0xff, 0xf8, 0xed, 0x1d, 0xea, 0x04, 0xfd, 0x25, 0x17, 0xfb, 0xd4, 0x00, 0xf3, 0xcf, 0x7f, 0x5c, 0x18, 0x0b, 0xe2, 0xf5, 0xf3, 0x17, 0x0b, 0x07, 0x26, 0xee, 0xda, 0x01, 0xf5, 0x12, 0x66, 0x33, 0x00, 0x1e, 0x08, 0x3c, 0xf0, 0x13, 0x7f, 0x1f, 0x04, 0xc3, 0x05, 0x2f, 0xed, 0x81, 0xd8, 0x72, 0xf9, 0xe6, 0xc4, 0x2f, 0xbc, 0x6c, 0x4b, 0x64, 0xcf, 0x91, 0x12, 0xef, 0x3e, 0x1b, 0xeb, 0x42, 0xfe, 0x00, 0xdb, 0xe5, 0xe4, 0x81, 0x39, 0x6d, 0x12, 0xdc, 0x32, 0x26, 0x02, 0x3b, 0xc6, 0x59, 0x1f, 0xef, 0x20, 0x0a, 0x9c, 0xd1, 0x08, 0xab, 0x81, 0xfb, 0xcd, 0xf2, 0xdf, 0x13, 0x33, 0xe3, 0x81, 0xda, 0x77, 0xd4, 0xed, 0xdf, 0x38, 0xe3, 0xf6, 0x0a, 0xfe, 0xee, 0x75, 0xb8, 0x7f, 0x38, 0xd2, 0x0e, 0x1c, 0x31, 0x09, 0x21, 0x57, 0xa7, 0x14, 0xc5, 0xe2, 0xf8, 0xfe, 0x2d, 0x81, 0x09, 0xf9, 0x1f, 0x1a, 0xf8, 0x12, 0xfe, 0xdb, 0xec, 0xfd, 0xe2, 0x09, 0xc1, 0xba, 0x31, 0x7f, 0xe7, 0x04, 0xc7, 0xe4, 0x2a, 0x06, 0x1d, 0xae, 0x21, 0xf8, 0x1c, 0xaf, 0x4a, 0xfe, 0x23, 0x7f, 0xdc, 0x96, 0x33, 0xfa, 0x88, 0xb3, 0xf7, 0x0b, 0xf6, 0xd9, 0x3e, 0x6f, 0x6c, 0xfc, 0xb3, 0x81, 0x12, 0xd8, 0xff, 0x8b, 0x05, 0x20, 0xeb, 0x35, 0x22, 0x37, 0x23, 0x44, 0x1e, 0xbc, 0x5e, 0x4e, 0xb3, 0x43, 0x34, 0x81, 0xc3, 0xc2, 0xe5, 0xed, 0x1e, 0xef, 0xd2, 0xe7, 0xfa, 0x14, 0x05, 0xaf, 0xe2, 0x0e, 0x09, 0xfb, 0xc7, 0xfa, 0x19, 0x81, 0x07, 0xf5, 0x12, 0xf0, 0x0d, 0xb5, 0xfd, 0x81, 0xe3, 0x00, 0x08, 0xbd, 0xe4, 0xcf, 0x28, 0xdd, 0xcf, 0x03, 0x20, 0xda, 0x1e, 0x81, 0x33, 0xdd, 0xfc, 0x00, 0x01, 0xcf, 0x29, 0xd7, 0x75, 0x59, 0xcf, 0x3d, 0x21, 0xe3, 0xf9, 0xb9, 0x1a, 0xbc, 0x28, 0xd2, 0xfd, 0xf5, 0x81, 0x0a, 0x34, 0xdf, 0x26, 0xf2, 0xb9, 0xee, 0xb0, 0x2d, 0x17, 0xb4, 0xfc, 0x15, 0xfe, 0xb7, 0x81, 0xfd, 0x81, 0x05, 0x44, 0xeb, 0xe8, 0x38, 0x0a, 0xeb, 0x01, 0x81, 0x04, 0xeb, 0x09, 0xe2, 0x50, 0xe8, 0xcb, 0xee, 0xff, 0x14, 0x1c, 0x20, 0xf1, 0xee, 0xe7, 0x7f, 0x17, 0x1c, 0xe6, 0x0d, 0x19, 0xf5, 0xfc, 0xfa, 0x0b, 0xf3, 0x02, 0xe6, 0x7f, 0xd8, 0xa7, 0xf7, 0x5a, 0x18, 0x2c, 0x1d, 0xab, 0xe8, 0xc5, 0x1f, 0xd1, 0x69, 0x79, 0x7a, 0x0c, 0x32, 0xea, 0xcd, 0x22, 0xe9, 0x1b, 0xef, 0xdb, 0xd1, 0x81, 0x19, 0x74, 0xe7, 0xde, 0x40, 0x42, 0x8c, 0x3d, 0xdb, 0xf2, 0xee, 0xfd, 0xf1, 0x26, 0xdc, 0x7f, 0x2d, 0x00, 0x18, 0x32, 0x17, 0xe2, 0x81, 0x49, 0x02, 0x12, 0x20, 0xf1, 0xe0, 0xe0, 0xe0, 0x1e, 0xf7, 0x40, 0xcf, 0xdf, 0x5e, 0x0e, 0x10, 0x7f, 0x16, 0x02, 0x7e, 0x1d, 0x89, 0xf6, 0x1a, 0xff, 0x45, 0xc3, 0xdf, 0xdc, 0x66, 0x20, 0x13, 0x04, 0x3c, 0xf4, 0x05, 0x15, 0x01, 0x7f, 0xed, 0xfb, 0xfa, 0x14, 0xe2, 0x0a, 0x34, 0x10, 0x7f, 0x1a, 0x2f, 0x04, 0xc2, 0xc9, 0x1a, 0x14, 0xce, 0x35, 0x17, 0xe7, 0x23, 0xdf, 0xcd, 0xfe, 0xda, 0xd3, 0x7f, 0x20, 0xd8, 0xe8, 0xb3, 0x15, 0xbc, 0xd5, 0x85, 0xfd, 0xee, 0x53, 0xe0, 0x08, 0x00, 0x37, 0x36, 0x02, 0x81, 0x4a, 0x05, 0x18, 0xfb, 0xf9, 0xf5, 0x02, 0xdf, 0x12, 0x1d, };
const int32_t bias6[64] = {14376, -7674, 8169, 2306, 130, 28690, 17607, 583, 15, 25047, 6431, 909, 1622, -237, 15123, -858, 2974, -1457, 122, 2459, -349, 1811, 215, -1838, -5995, 19452, 14959, 20925, 5387, -76, -2118, 15479, 8684, 6706, -1435, 6551, 3576, -3629, -919, -2955, 1730, -2178, 543, 3212, 8541, -870, 2920, -1730, 984, -1223, -3991, -2224, 415, -2544, 6830, -351, -3894, -4322, 1032, -3934, 2359, -2368, 13774, -1632, };
const float scales6[64] = {0.005264560425332855, 0.014345377417096383, 0.016597799761174394, 0.0096668013808182, 0.015417033165459549, 0.0022834100992014453, 0.0036730396977586784, 0.017122661266182265, 0.011573850741496122, 0.004227706133700906, 0.014519723901929096, 0.013680238462508076, 0.01789279101480617, 0.01923143750853551, 0.005545709048217516, 0.029620796767938176, 0.008556172049917203, 0.020270623382430315, 0.00952311634639023, 0.032433030504686225, 0.02186296315674805, 0.017661637822735107, 0.017652971403002905, 0.013519734500297935, 0.010291504829863537, 0.0028242374191326304, 0.004907895984687338, 0.005029748045819834, 0.007833003414551294, 0.02822114856820074, 0.011911054670447382, 0.004913368949439604, 0.006547922480518946, 0.006229203799046794, 0.012705342161406554, 0.008586702102448648, 0.018057190193971416, 0.0182659707081489, 0.009214729431029639, 0.014767844939372065, 0.025105448036458936, 0.017305917500142178, 0.01069850730911081, 0.016647472050551438, 0.00766394447747186, 0.012307013888432125, 0.01101441894268228, 0.015681946851110032, 0.018694905925743594, 0.015755982252831726, 0.013451695708186539, 0.016157280117742697, 0.009472504805548499, 0.01425284216813188, 0.008834139870950468, 0.02333860215322537, 0.011183468633244703, 0.01436397264946203, 0.02509493231332476, 0.020323752895851473, 0.02011130297439744, 0.013352914680311261, 0.005561809180966868, 0.02268168870550553, };
const int32_t shift6[64] = {-7, -6, -5, -6, -6, -8, -8, -5, -6, -7, -6, -6, -5, -5, -7, -5, -6, -5, -6, -4, -5, -5, -5, -6, -6, -8, -7, -7, -6, -5, -6, -7, -7, -7, -6, -6, -5, -5, -6, -6, -5, -5, -6, -5, -7, -6, -6, -5, -5, -5, -6, -5, -6, -6, -6, -5, -6, -6, -5, -5, -5, -6, -7, -5, };
const int32_t multiplier6[64] = {1447111351, 1971613659, 1140592115, 1328595065, 2118900904, 1255317978, 2019274928, 1176660323, 1590697934, 1162103013, 1995575658, 1880197658, 1229583236, 1321574322, 1524392896, 2035525654, 1175951332, 1392986632, 1308847144, 1114390443, 1502411388, 1213698509, 1213102958, 1858138161, 1414453653, 1552640941, 1349072176, 1382566615, 1076559792, 1939342562, 1637042889, 1350576573, 1799879226, 1712270502, 1746208930, 1180147351, 1240880661, 1255227949, 1266462770, 2029677154, 1725233252, 1189253595, 1470391648, 1144005568, 2106649017, 1691463109, 1513810213, 1077655182, 1284704153, 1082742856, 1848786981, 1110319835, 1301891147, 1958895712, 1214154939, 1603816528, 1537044225, 1974169369, 1724510617, 1396637664, 1382038217, 1835210619, 1528818466, 1558673779, };
const unsigned char CHWweight7[576] = {0xf8, 0xfe, 0xf4, 0xf0, 0x62, 0x7f, 0xe2, 0x0c, 0x44, 0xd3, 0x1e, 0x16, 0x00, 0x7f, 0x4e, 0x00, 0x73, 0x47, 0x0f, 0xf2, 0xf7, 0x0e, 0x99, 0x8a, 0x01, 0x97, 0x81, 0x17, 0x49, 0x50, 0x32, 0x7f, 0x7f, 0x2e, 0x3e, 0x41, 0x17, 0x33, 0x43, 0x27, 0x6a, 0x7f, 0x16, 0x3b, 0x48, 0xf5, 0x20, 0xe5, 0xe5, 0x70, 0x98, 0xec, 0x7f, 0x8f, 0xd2, 0x1e, 0x10, 0x86, 0x2e, 0x4b, 0x81, 0x2f, 0x49, 0xea, 0x16, 0x25, 0xed, 0x50, 0x7f, 0xdc, 0x26, 0x56, 0x2e, 0x2e, 0xf8, 0x3f, 0x71, 0x45, 0x0a, 0x7f, 0x65, 0x05, 0xfa, 0x7f, 0xe9, 0x91, 0x20, 0x05, 0x04, 0xdd, 0x1b, 0x70, 0x64, 0x07, 0x10, 0x1b, 0xdf, 0x81, 0x8a, 0x04, 0x45, 0x37, 0xf2, 0x7f, 0x6f, 0xef, 0x2c, 0x1e, 0x14, 0x2c, 0x34, 0x17, 0x7f, 0x76, 0x11, 0x6d, 0x68, 0xef, 0xd7, 0xd8, 0xe8, 0x81, 0x96, 0xee, 0xa4, 0xb9, 0x04, 0x02, 0xd5, 0x0a, 0x63, 0x99, 0xfc, 0x7f, 0x95, 0x3e, 0x4e, 0x22, 0x43, 0x7f, 0x60, 0x28, 0x6e, 0x57, 0xf5, 0xeb, 0x08, 0xf1, 0x37, 0x3b, 0xfa, 0x7d, 0x7f, 0x08, 0x2c, 0x1c, 0x36, 0x7f, 0x6f, 0x36, 0x74, 0x61, 0xe7, 0x23, 0x34, 0x11, 0x6b, 0x7f, 0x28, 0x6a, 0x75, 0xf3, 0xc3, 0xcc, 0xe1, 0x82, 0x81, 0xd7, 0xae, 0xa2, 0xf9, 0xe0, 0x06, 0xd9, 0x81, 0xb8, 0xe1, 0x97, 0xbc, 0x11, 0x04, 0x14, 0xfd, 0xa8, 0xa6, 0x00, 0x88, 0x81, 0xfe, 0xe8, 0xdf, 0xcf, 0x81, 0x94, 0xd8, 0xb0, 0xc2, 0x03, 0x0d, 0x24, 0x16, 0x7f, 0x7d, 0x11, 0x76, 0x60, 0x1b, 0x7f, 0x74, 0x22, 0x7a, 0x76, 0x0d, 0x1b, 0x15, 0x1d, 0xb5, 0x28, 0x1e, 0x81, 0x5e, 0x0e, 0xaa, 0x4b, 0x26, 0x10, 0xd1, 0x57, 0x34, 0x8c, 0x45, 0x2a, 0x81, 0x09, 0x1c, 0x21, 0x03, 0x07, 0x04, 0xf2, 0x8b, 0x81, 0x93, 0xbb, 0x74, 0x8e, 0xc2, 0x7f, 0xe3, 0x01, 0x09, 0x06, 0xd3, 0xa0, 0xdc, 0x87, 0x91, 0xc4, 0x81, 0xc5, 0x16, 0x6a, 0x51, 0x21, 0x7f, 0x6a, 0x0e, 0x3f, 0x33, 0xfe, 0xe0, 0xd8, 0xed, 0xd8, 0xdc, 0xe7, 0x64, 0x7f, 0xf8, 0x45, 0xc0, 0xe0, 0x7f, 0xaa, 0xce, 0x78, 0x9d, 0x2c, 0xd2, 0xf3, 0x7f, 0xd9, 0xa8, 0x7c, 0xde, 0xa9, 0xf0, 0x15, 0x22, 0x1e, 0x65, 0x6c, 0x31, 0x7f, 0x7c, 0xf3, 0x31, 0xeb, 0xb1, 0x7f, 0xbd, 0xa7, 0x6c, 0xe4, 0xff, 0x2f, 0x33, 0x13, 0x7f, 0x61, 0x1a, 0x6c, 0x33, 0x0f, 0x49, 0x4a, 0x18, 0x7f, 0x72, 0x16, 0x52, 0x3b, 0xed, 0xca, 0xd6, 0xfe, 0x41, 0x4d, 0x0e, 0x69, 0x7f, 0xed, 0x2e, 0x3f, 0xc3, 0x4f, 0x7f, 0xd4, 0x1a, 0x55, 0xff, 0x9e, 0x96, 0xce, 0xf7, 0x03, 0xe9, 0x73, 0x7f, 0xff, 0x2b, 0x3a, 0x0c, 0x68, 0x7f, 0x0c, 0x45, 0x5a, 0xe7, 0xbc, 0xb4, 0xdd, 0x8f, 0x81, 0xe3, 0xb7, 0xb0, 0xf5, 0x06, 0x0b, 0xe2, 0x60, 0xd2, 0xed, 0x7f, 0xad, 0xdc, 0x8d, 0x26, 0x81, 0x6f, 0x36, 0x11, 0x64, 0xcd, 0xe8, 0xac, 0x9b, 0xd1, 0x81, 0x89, 0xde, 0xa8, 0xad, 0xef, 0xc3, 0xb4, 0xee, 0xca, 0xdd, 0x0f, 0x7d, 0x7f, 0x10, 0x68, 0x5b, 0x19, 0x79, 0x7f, 0xff, 0x18, 0x22, 0xdb, 0xb9, 0xbe, 0xcb, 0x87, 0x8b, 0xdf, 0x81, 0x97, 0xfd, 0x86, 0x81, 0xda, 0x84, 0x9a, 0x3d, 0x3f, 0x3c, 0x0f, 0x41, 0x2b, 0x5d, 0x7f, 0x16, 0x5c, 0x55, 0xc8, 0x16, 0x45, 0x42, 0x25, 0x7a, 0x7f, 0x23, 0x60, 0x59, 0xea, 0x86, 0xdf, 0x87, 0x81, 0x11, 0xae, 0xed, 0x4c, 0xf4, 0x0e, 0x12, 0x08, 0x4f, 0x67, 0x0e, 0x6d, 0x7f, 0x0a, 0x3b, 0x31, 0xde, 0x81, 0x89, 0x0a, 0x44, 0x3e, 0x04, 0x56, 0x51, 0x2d, 0x7f, 0x79, 0xdd, 0x12, 0x04, 0x35, 0x52, 0x55, 0x16, 0x7f, 0x7c, 0xcc, 0x30, 0x53, 0x21, 0x52, 0x62, 0x47, 0x7f, 0x73, 0x48, 0x59, 0xf0, 0xf3, 0xb9, 0xca, 0xe3, 0x81, 0x91, 0xf5, 0x84, 0x89, 0xc0, 0x0c, 0x2c, 0xd6, 0x79, 0x7f, 0x08, 0x7d, 0x7f, 0x03, 0xf7, 0xfc, 0xe7, 0x81, 0x91, 0xde, 0x9b, 0x9c, 0x29, 0x67, 0xef, 0x4a, 0x74, 0xc1, 0x16, 0x37, 0x81, 0x04, 0x0f, 0x0b, 0x17, 0x5f, 0x60, 0xdc, 0xaf, 0x81, 0xfb, 0x2b, 0x21, 0x08, 0x7f, 0x78, 0x01, 0x51, 0x58, };
const int32_t offsetBias7[64] = {27093, 51492, 55231, 84019, 83248, -990, -403, 45657, 63832, -186, 32371, 81900, 85136, -17465, 1104, 148455, 41672, 101792, 64230, 78676, 48996, 8088, -52530, 91613, 77687, -352, 1516, 11813, 15542, -48736, 79214, 14912, -3000, 285, 74169, -1313, 69039, 76078, 49858, 38742, -5069, 75196, -43614, -347, -1352, -72634, 288, 80057, -74265, 5855, 62470, 79930, -30322, 59775, -2684, 45750, 65944, 78775, -59751, 58667, -34216, 34022, -82, 71735, };
const int32_t offsetRBias7[64] = {0, 0, 0, 0, 0, 0, 0, 0, 0, 0, 0, 0, 0, 0, 0, 0, 0, 0, 0, 0, 0, 0, 0, 0, 0, 0, 0, 0, 0, 0, 0, 0, 0, 0, 0, 0, 0, 0, 0, 0, 0, 0, 0, 0, 0, 0, 0, 0, 0, 0, 0, 0, 0, 0, 0, 0, 0, 0, 0, 0, 0, 0, 0, 0, };
const float scales7[64] = {0.005807641893625259, 0.022483685985207558, 0.001757244230248034, 0.0023015278857201338, 0.002950293943285942, 0.017760051414370537, 0.02137705497443676, 0.0032380279153585434, 0.003838054835796356, 0.010223793797194958, 0.0024186267983168364, 0.0025895864237099886, 0.001934780739247799, 0.0035954357590526342, 0.015013993717730045, 0.002578975632786751, 0.0036826443392783403, 0.0025250110775232315, 0.003951591439545155, 0.0009581344202160835, 0.0023957425728440285, 0.0017918316880241036, 0.0056723300367593765, 0.003420635825023055, 0.0038169268518686295, 0.017260964959859848, 0.010652701370418072, 0.00802697241306305, 0.0034882500767707825, 0.0027830651961266994, 0.00428660586476326, 0.008057861588895321, 0.010019898414611816, 0.006891939323395491, 0.0025453660637140274, 0.008860714733600616, 0.0015906351618468761, 0.0031790153589099646, 0.006212701089680195, 0.007220632862299681, 0.007308864966034889, 0.0029925997368991375, 0.002832569880411029, 0.009740137495100498, 0.006440166849642992, 0.0042870002798736095, 0.005666385870426893, 0.0021545926574617624, 0.004881619475781918, 0.0026375437155365944, 0.0071634952910244465, 0.004502987954765558, 0.004465124569833279, 0.007828931324183941, 0.014203638769686222, 0.0012179049663245678, 0.003866617102175951, 0.0034736348316073418, 0.0034822607412934303, 0.0033780767116695642, 0.003165397560223937, 0.003233799012377858, 0.007049445994198322, 0.0033523431047797203, };
const int32_t shift7[64] = {-7, -5, -9, -8, -8, -5, -5, -8, -8, -6, -8, -8, -9, -8, -6, -8, -8, -8, -7, -10, -8, -9, -7, -8, -8, -5, -6, -6, -8, -8, -7, -6, -6, -7, -8, -6, -9, -8, -7, -7, -7, -8, -8, -6, -7, -7, -7, -8, -7, -8, -7, -7, -7, -6, -6, -9, -8, -8, -8, -8, -8, -8, -7, -8, };
const int32_t multiplier7[64] = {1596392448, 1545067136, 1932110464, 1265278336, 1621941248, 1220461440, 1469020032, 1780124672, 2109992960, 1405147520, 1329654144, 1423640192, 2127313920, 1976611712, 2063507584, 1417806848, 2024555136, 1388139520, 1086205184, 2106959872, 1317073408, 1970139776, 1559198208, 1880514432, 2098377728, 1186164480, 1464096128, 1103218688, 1917685760, 1530006272, 1178293248, 1107464064, 1377124352, 1894441856, 1399329792, 1217807360, 1748921856, 1747682176, 1707734272, 1984792448, 2009045504, 1645199104, 1557221760, 1338674304, 1770259584, 1178401664, 1557564288, 1184499840, 1341849344, 1450004992, 1969086592, 1237771904, 1227364096, 1076000128, 1952133248, 1339100672, 2125695232, 1909650944, 1914393088, 1857117312, 1740195712, 1777799808, 1937736960, 1842970112, };
const unsigned char weight8[1024] = {0x81, 0x5c, 0x21, 0xdc, 0xf8, 0xca, 0xe0, 0xfc, 0xc8, 0xdf, 0x1c, 0xac, 0xb3, 0xc5, 0xce, 0xfd, 0x74, 0x32, 0xd0, 0x9e, 0xf1, 0x34, 0x3a, 0x53, 0x0b, 0xd0, 0xda, 0x56, 0x18, 0xff, 0x07, 0x34, 0x2c, 0xf7, 0xc9, 0xfc, 0xb3, 0xf7, 0xe6, 0xe1, 0x21, 0x1d, 0x0a, 0xdc, 0xe4, 0xe6, 0xf2, 0x17, 0xfd, 0xd9, 0xee, 0x06, 0xfd, 0xe5, 0x13, 0x36, 0xfc, 0xe6, 0xe1, 0x25, 0xf0, 0xfd, 0x23, 0xc3, 0x52, 0x1d, 0xef, 0xf4, 0x0f, 0xfd, 0x1a, 0xd8, 0xbd, 0xe2, 0xcf, 0xe4, 0xdc, 0xd4, 0xf9, 0xf4, 0x2d, 0x32, 0xb4, 0xf0, 0x20, 0xfc, 0xf8, 0xea, 0xe1, 0x7f, 0x35, 0x33, 0x03, 0x1f, 0xe3, 0xe5, 0x05, 0x07, 0x05, 0x33, 0x37, 0xba, 0x1d, 0xd3, 0xfa, 0xe3, 0x2e, 0x40, 0x05, 0xf8, 0xd9, 0xeb, 0x06, 0x08, 0xf2, 0xdd, 0x21, 0xe9, 0x0e, 0xd2, 0xd8, 0xcf, 0xf0, 0xea, 0xcd, 0x03, 0x08, 0xff, 0xac, 0x81, 0xd3, 0xfb, 0xf8, 0x18, 0xf8, 0x04, 0xf1, 0xd4, 0xeb, 0xf5, 0x2a, 0xcf, 0xf2, 0x27, 0xef, 0xe7, 0x41, 0xd9, 0x23, 0xd9, 0xf4, 0xff, 0x06, 0xb7, 0x17, 0x1c, 0xe7, 0x0e, 0xea, 0x08, 0xff, 0xe6, 0xf7, 0x06, 0x03, 0x18, 0x32, 0x18, 0x03, 0xea, 0x10, 0xe0, 0x0c, 0x09, 0xe6, 0xe5, 0xfe, 0xf2, 0x14, 0x18, 0x14, 0xea, 0xdf, 0xd9, 0xf8, 0xc9, 0xed, 0x01, 0xfb, 0xd1, 0xec, 0xf9, 0x81, 0x23, 0xbe, 0xb8, 0x00, 0x27, 0x14, 0x3e, 0xe5, 0x50, 0x23, 0xe9, 0xd9, 0xdd, 0x36, 0x07, 0xde, 0xf5, 0xe9, 0x0e, 0x32, 0x0b, 0x16, 0x39, 0x24, 0x23, 0x31, 0x84, 0xd5, 0xd4, 0xbf, 0xbb, 0xee, 0xca, 0xaf, 0x3f, 0x57, 0x02, 0xd2, 0x07, 0xf8, 0xce, 0x46, 0x01, 0x30, 0xd9, 0x28, 0x52, 0x01, 0x37, 0xe7, 0xd2, 0x0d, 0x22, 0xf0, 0xf7, 0xb6, 0xc4, 0xc2, 0x09, 0x2c, 0xb5, 0xde, 0xf6, 0x95, 0xcb, 0xf0, 0x5f, 0xb0, 0xb5, 0xfd, 0xf3, 0x7e, 0x0e, 0x81, 0xef, 0x57, 0xe1, 0xed, 0x23, 0xd4, 0xc8, 0x5c, 0x35, 0x28, 0xfe, 0x0c, 0xf3, 0x1b, 0x3a, 0x02, 0xdd, 0x41, 0xf1, 0xbc, 0x81, 0x03, 0x3f, 0xde, 0x0a, 0x95, 0x56, 0x3a, 0xe6, 0x0a, 0x3a, 0x07, 0x19, 0xf2, 0x1c, 0x16, 0xda, 0x0d, 0xf4, 0xf8, 0x32, 0xd8, 0x19, 0x30, 0xfe, 0x1c, 0x1b, 0x02, 0x19, 0xf8, 0x18, 0x0c, 0x03, 0xad, 0xdc, 0xf9, 0x20, 0x39, 0x1a, 0x04, 0x35, 0x49, 0x3b, 0x38, 0x2c, 0xf8, 0x0f, 0xf8, 0xcb, 0x0b, 0x48, 0xb0, 0x36, 0x36, 0x19, 0xa5, 0xdd, 0xc8, 0xe9, 0x0e, 0x01, 0x6a, 0x97, 0xc5, 0x7f, 0xc1, 0x08, 0xf5, 0x15, 0x72, 0x25, 0xb3, 0x23, 0xf3, 0xda, 0x22, 0xea, 0xc6, 0xed, 0xf7, 0xfa, 0xf9, 0x20, 0xee, 0xdf, 0x9f, 0xe4, 0x00, 0xd8, 0xc5, 0x12, 0xfd, 0xfd, 0xfb, 0xdf, 0x56, 0xf1, 0x5b, 0x81, 0x86, 0x9d, 0x58, 0xa9, 0x06, 0x02, 0x3e, 0x06, 0x1a, 0xe8, 0xe1, 0x08, 0x2c, 0x29, 0x34, 0x3d, 0x11, 0xcc, 0x04, 0x0d, 0xc8, 0x26, 0x14, 0x4e, 0x0d, 0x00, 0x1a, 0xff, 0x02, 0xfe, 0xd1, 0x0c, 0xaa, 0x23, 0xe0, 0x16, 0xd6, 0x08, 0x1a, 0xe5, 0xe8, 0x3b, 0xf7, 0xe4, 0x1e, 0x02, 0xaa, 0xf3, 0x2b, 0xf4, 0x02, 0xa3, 0xcd, 0xbe, 0xe6, 0xf4, 0xfa, 0x3e, 0xe8, 0x27, 0x28, 0x0f, 0xc4, 0xf4, 0xd4, 0x0d, 0xf2, 0xec, 0x1e, 0xd4, 0xc3, 0xb4, 0x30, 0xf6, 0xe0, 0x23, 0xe4, 0x38, 0xec, 0xf5, 0xf8, 0xf3, 0x10, 0x7f, 0x0d, 0x01, 0x33, 0x56, 0x38, 0xe6, 0x2b, 0x32, 0x0b, 0x34, 0x1e, 0x1c, 0xe2, 0x31, 0x55, 0xec, 0xd6, 0xd8, 0x14, 0x03, 0x14, 0x24, 0x1a, 0xe1, 0x0a, 0x1b, 0x0e, 0xc4, 0x10, 0xe4, 0x1b, 0xd8, 0xe9, 0x31, 0x49, 0xf9, 0xf0, 0xe6, 0x20, 0x33, 0x09, 0x23, 0xc9, 0x11, 0x2d, 0xe1, 0x17, 0x62, 0x22, 0x58, 0xe2, 0x22, 0x81, 0xd2, 0x5f, 0x1a, 0x2d, 0x27, 0x6a, 0x3a, 0x27, 0x6f, 0x4f, 0x04, 0xd2, 0x17, 0xf3, 0x06, 0x52, 0x46, 0xd2, 0xde, 0xe5, 0x12, 0x30, 0xf5, 0xf4, 0x44, 0xee, 0x1c, 0xf4, 0x54, 0x0d, 0x32, 0xeb, 0x09, 0x2b, 0x14, 0xdb, 0x1a, 0xd0, 0xad, 0x35, 0x18, 0xe4, 0x02, 0x25, 0x24, 0x1e, 0xef, 0x00, 0x1f, 0x3b, 0xe3, 0x21, 0xa6, 0x7f, 0x24, 0xe2, 0x2a, 0x02, 0x3b, 0xf0, 0xde, 0xe1, 0x1f, 0x09, 0x20, 0xd8, 0xf1, 0xef, 0xfb, 0x11, 0x2f, 0xf3, 0x04, 0x06, 0x1c, 0xf8, 0xe7, 0xfc, 0xcc, 0xf6, 0xf0, 0xe7, 0x13, 0xc6, 0x18, 0xff, 0xda, 0xfe, 0xd7, 0xf0, 0x02, 0xf2, 0xed, 0x10, 0xfe, 0x14, 0xd8, 0x1d, 0xf9, 0x1e, 0x04, 0x02, 0x07, 0xed, 0xff, 0x11, 0xd6, 0x25, 0xe1, 0xeb, 0xcf, 0xf7, 0xf5, 0xe1, 0xf1, 0x33, 0x07, 0x08, 0x1c, 0x05, 0x14, 0x05, 0x09, 0x11, 0x00, 0xeb, 0xfc, 0x81, 0x38, 0xd4, 0xc8, 0x2a, 0x02, 0xb0, 0xff, 0xd3, 0xbe, 0x2a, 0x5f, 0xfc, 0xfb, 0x2a, 0x0e, 0x0b, 0x22, 0xeb, 0xdd, 0x00, 0x64, 0x08, 0x0b, 0xc6, 0x12, 0x3c, 0xed, 0x46, 0x1c, 0x0c, 0x22, 0x0d, 0x03, 0xed, 0x0a, 0xea, 0x0c, 0x1c, 0xef, 0x16, 0x00, 0xf1, 0xa3, 0xf7, 0x09, 0xf0, 0x05, 0xe5, 0x06, 0xf5, 0x10, 0x9b, 0xc8, 0x7f, 0x25, 0x8d, 0xac, 0xe4, 0x09, 0x10, 0xab, 0x03, 0xf9, 0xfa, 0x9f, 0xfa, 0x01, 0xfa, 0x18, 0xf1, 0x15, 0xe1, 0x8e, 0x65, 0x30, 0x1c, 0x4e, 0x3c, 0xfe, 0xea, 0xf8, 0xf3, 0xcf, 0xe6, 0xe1, 0x22, 0xed, 0xe9, 0xfd, 0x4c, 0xc8, 0x19, 0x10, 0x03, 0xec, 0x5d, 0xd9, 0x08, 0xec, 0xf5, 0x33, 0x58, 0xf9, 0x0d, 0x0b, 0xdf, 0xc0, 0xc0, 0xd6, 0x8b, 0xb0, 0xc5, 0xd7, 0x2e, 0x1f, 0x0b, 0x21, 0x36, 0x7f, 0x3a, 0xc9, 0x0d, 0x2f, 0x16, 0x0d, 0x0d, 0xfc, 0x07, 0x07, 0x00, 0x28, 0xfe, 0xde, 0x24, 0xf4, 0x29, 0x11, 0xc5, 0xc2, 0x02, 0xfd, 0xec, 0xed, 0x51, 0xd5, 0x15, 0x19, 0x56, 0xaa, 0x4d, 0x5f, 0xf2, 0x23, 0x3e, 0xe2, 0x2d, 0xf1, 0xe0, 0xff, 0xc2, 0xfc, 0xf1, 0x10, 0xe5, 0xdb, 0x00, 0x1e, 0xdc, 0x1a, 0x10, 0x03, 0xd2, 0xcc, 0xfc, 0xf2, 0x37, 0x23, 0x0a, 0xbc, 0xf2, 0xfb, 0x1f, 0x8e, 0x81, 0xc9, 0x93, 0x23, 0xf8, 0x14, 0x9e, 0xec, 0xcd, 0xda, 0xe7, 0x29, 0x1f, 0xbc, 0xcf, 0x0d, 0x9d, 0xfe, 0xdf, 0x5a, 0x1f, 0x01, 0x1d, 0xd4, 0x15, 0x2b, 0xcd, 0x03, 0x03, 0x0b, 0x5c, 0xe6, 0xff, 0x23, 0x1f, 0xfc, 0x09, 0xf6, 0xfd, 0x1a, 0xc4, 0xe0, 0xe8, 0xc4, 0xdc, 0xc3, 0xee, 0x13, 0xd1, 0xdb, 0xfb, 0xe9, 0xf5, 0x08, 0x0b, 0x2d, 0xff, 0xd3, 0xe5, 0xc1, 0xef, 0x5d, 0xe5, 0x19, 0x62, 0xda, 0x7f, 0x4d, 0xfb, 0xe3, 0xe5, 0xf8, 0x05, 0xd7, 0xb0, 0x1d, 0xf6, 0x06, 0x8b, 0x16, 0x01, 0xd1, 0xf0, 0x13, 0xd3, 0x1a, 0x13, 0xfe, 0x06, 0x1d, 0xfe, 0xf5, 0x09, 0xcd, 0xac, 0xd3, 0x3b, 0xfb, 0xeb, 0xda, 0x1d, 0x10, 0xfc, 0x3f, 0x13, 0x16, 0x0c, 0x0b, 0x10, 0x03, 0x26, 0x05, 0xfc, 0x15, 0xf9, 0x00, 0xf5, 0x23, 0x01, 0xeb, 0x10, 0x1b, 0xc9, 0xd5, 0xd5, 0x1f, 0x62, 0x94, 0xde, 0x39, 0x27, 0x24, 0xe5, 0x2f, 0x5c, 0xd6, 0x36, 0xc1, 0x09, 0xcc, 0x18, 0xbe, 0x29, 0xc9, 0x16, 0xd4, 0x09, 0xfc, 0xfa, 0x09, 0x34, 0xe6, 0x05, 0xc6, 0xf6, 0xee, 0x2d, 0xd4, 0xf7, 0xd1, 0x32, 0x05, 0x81, 0x33, 0xf4, 0xde, 0xe9, 0x01, 0x1b, 0xeb, 0xc7, 0x23, 0xf2, 0xa3, 0xf4, 0xfb, 0xbd, 0x5f, 0xb8, 0x27, 0xea, 0x60, 0x47, 0x65, 0x1d, 0x29, 0xc6, 0x08, 0xcc, 0xe8, };
const int32_t bias8[16] = {18697, -22750, 10852, 23584, 27264, -36669, -24389, -32390, -55846, -14175, -21669, -31934, 4413, 44908, -5918, 45728, };
const float scales8[16] = {0.001239452489964428, 0.0019594648479708057, 0.0024064436415099748, 0.001418181542301693, 0.0011659233127750898, 0.0012346698983470706, 0.0011671914996116686, 0.0018669225161417056, 0.001377430827762364, 0.0023850973351083877, 0.001630039255855365, 0.0014327267913746763, 0.0014556616157165136, 0.0015078351465073298, 0.0015990642337124395, 0.0012866439021703964, };
const int32_t shift8[16] = {-9, -8, -8, -9, -9, -9, -9, -9, -9, -8, -9, -9, -9, -9, -9, -9, };
const int32_t multiplier8[16] = {1362792425, 1077227192, 1322956383, 1559307096, 1281946239, 1357533910, 1283340626, 2052703015, 1514501212, 1311221127, 1792247116, 1575299767, 1600516873, 1657882276, 1758189719, 1414679931, };
const unsigned char weight9[768] = {0xfa, 0xf0, 0x31, 0x69, 0x2e, 0xf9, 0x51, 0xfa, 0xae, 0xe5, 0x90, 0xee, 0xbc, 0x19, 0x81, 0xe7, 0xe2, 0xe3, 0x39, 0x0b, 0x7f, 0x63, 0xcd, 0x2a, 0xbd, 0x11, 0xad, 0xc1, 0x84, 0x74, 0x8b, 0xec, 0x1c, 0x5d, 0x0e, 0x81, 0x8a, 0x6b, 0xe5, 0x38, 0xd7, 0x79, 0x1c, 0x10, 0xc7, 0xd7, 0x46, 0x71, 0xfd, 0x81, 0x0a, 0xbe, 0xe7, 0xc5, 0xe3, 0xeb, 0xce, 0x90, 0x06, 0xb4, 0x40, 0xfd, 0x1a, 0x2b, 0xa3, 0x12, 0xe4, 0xc9, 0x81, 0x37, 0x9b, 0xc9, 0xea, 0xb1, 0xac, 0x9e, 0xa9, 0x18, 0xa1, 0x60, 0xe6, 0xdc, 0x70, 0x35, 0xd2, 0xac, 0x54, 0x30, 0x1a, 0x5b, 0xf4, 0xcd, 0xf2, 0xe9, 0xdd, 0x81, 0x8c, 0xdd, 0x13, 0x3b, 0x3b, 0x3d, 0x1c, 0x1c, 0x81, 0x2c, 0xdc, 0xda, 0xf6, 0x42, 0x00, 0x1a, 0xf1, 0xd3, 0x26, 0xaa, 0x9f, 0xf4, 0x69, 0x08, 0xc7, 0xe6, 0x5c, 0xa5, 0x7f, 0xf8, 0x2b, 0x45, 0xde, 0x1b, 0x34, 0x18, 0xe6, 0xe5, 0xc3, 0x2a, 0xe9, 0xa1, 0x00, 0xd7, 0xc4, 0x17, 0xac, 0x7f, 0xff, 0x34, 0xfb, 0xd3, 0xe7, 0x28, 0x04, 0xf1, 0x3c, 0x7f, 0xfb, 0x47, 0x13, 0x17, 0xe6, 0xf1, 0x1c, 0x21, 0x65, 0x38, 0xa1, 0xcf, 0xc8, 0xf0, 0xbc, 0x94, 0x7f, 0xee, 0xd8, 0xe0, 0xe7, 0x57, 0xec, 0x57, 0x05, 0x09, 0xf4, 0x28, 0x21, 0xe9, 0xd1, 0x7f, 0xda, 0x15, 0x03, 0x00, 0xdc, 0xfc, 0xf8, 0xea, 0xdf, 0xd6, 0x36, 0x35, 0x05, 0xf9, 0x0c, 0x48, 0x02, 0x3f, 0x08, 0xf6, 0xe9, 0x7f, 0xe4, 0x8a, 0xea, 0xf9, 0x17, 0xed, 0x81, 0x97, 0xc9, 0xcb, 0x26, 0xd0, 0x28, 0x0a, 0x49, 0x14, 0xd9, 0xe2, 0x9c, 0xfb, 0xc3, 0xc6, 0x59, 0xcf, 0xa7, 0xd7, 0x77, 0x23, 0x81, 0xd8, 0xa6, 0xcd, 0xf9, 0xfa, 0x0a, 0xec, 0x1d, 0x7f, 0x0d, 0xfa, 0x14, 0xe1, 0x19, 0x25, 0x0a, 0x04, 0x0e, 0x12, 0xa4, 0x04, 0xe6, 0x63, 0x38, 0x01, 0x14, 0xf6, 0x08, 0x41, 0x81, 0xef, 0xa2, 0x15, 0xcf, 0xf2, 0xaf, 0x81, 0x36, 0xbe, 0x2a, 0xfa, 0x24, 0xf2, 0x26, 0xb4, 0x39, 0x38, 0xc8, 0x9f, 0x0f, 0x4c, 0xe8, 0x89, 0x13, 0x77, 0x73, 0xed, 0x7f, 0x38, 0xa3, 0x3a, 0x6a, 0xfd, 0xd3, 0x57, 0x60, 0xea, 0x5e, 0xc2, 0x3b, 0x19, 0x17, 0x04, 0x1d, 0x1f, 0xcb, 0x81, 0xd1, 0xef, 0x10, 0x37, 0x28, 0x11, 0xfd, 0xe5, 0xfb, 0xae, 0x15, 0x81, 0xc6, 0xf9, 0xec, 0x38, 0xf5, 0x23, 0xf3, 0xcd, 0xe2, 0x42, 0x5e, 0x05, 0x03, 0xc8, 0x98, 0x1d, 0x81, 0x3b, 0x1d, 0xdc, 0x40, 0xcd, 0x9e, 0x28, 0xe7, 0x03, 0x03, 0xbf, 0xe7, 0x04, 0x04, 0xeb, 0x81, 0x09, 0x13, 0x0b, 0xf3, 0xef, 0x16, 0xe7, 0x1c, 0x25, 0xe4, 0xe5, 0xef, 0x1e, 0x30, 0xce, 0x17, 0x81, 0x0a, 0xdd, 0x1f, 0x41, 0xae, 0x41, 0x0d, 0xd7, 0xb3, 0xf2, 0x0b, 0x41, 0xeb, 0x54, 0x2a, 0x81, 0x12, 0x03, 0x4f, 0x30, 0xdc, 0x47, 0x23, 0xd0, 0x09, 0x4c, 0xef, 0x0a, 0xd4, 0x1b, 0x0b, 0x27, 0x13, 0xaf, 0xff, 0xc3, 0x7f, 0x24, 0xfa, 0xcc, 0x2c, 0x18, 0x4e, 0xbc, 0x30, 0xf0, 0x20, 0x7f, 0x14, 0x23, 0xd8, 0xb9, 0x06, 0xba, 0x00, 0xa0, 0x22, 0x09, 0x2f, 0x03, 0x49, 0x0d, 0x6d, 0x28, 0x04, 0x7f, 0xdd, 0x74, 0x46, 0x48, 0xe9, 0xc7, 0x25, 0x38, 0xfb, 0x12, 0x18, 0xb5, 0xc6, 0x36, 0x96, 0xfe, 0x13, 0x1c, 0x64, 0x7f, 0xae, 0x51, 0xcc, 0x0e, 0xa4, 0xe5, 0x02, 0x85, 0x68, 0xa2, 0xb5, 0x96, 0xf5, 0x10, 0x81, 0xdf, 0xd0, 0x0d, 0x7f, 0x1b, 0x4a, 0x9e, 0xc4, 0x0e, 0x3c, 0xcd, 0x46, 0xa4, 0xc2, 0x43, 0xe1, 0xfa, 0x3f, 0x1a, 0xf7, 0x21, 0xda, 0x82, 0x18, 0x99, 0xf8, 0xfc, 0xbc, 0xac, 0x11, 0xb4, 0x2a, 0x7f, 0xf1, 0x50, 0xe7, 0x18, 0x10, 0xf2, 0x89, 0x18, 0x7f, 0xf9, 0x0e, 0x0a, 0xd4, 0x0b, 0x29, 0xff, 0x58, 0x18, 0x9e, 0x11, 0x2b, 0x01, 0xe6, 0x0d, 0x06, 0x81, 0x0c, 0x0b, 0x04, 0x1e, 0x89, 0xa9, 0x4b, 0x9e, 0x2f, 0xc4, 0xe0, 0xd8, 0xec, 0xfc, 0x81, 0xf3, 0xec, 0x20, 0x36, 0x2e, 0x22, 0xd2, 0xed, 0xc7, 0x01, 0xee, 0xde, 0x2c, 0x0f, 0x00, 0x7f, 0xce, 0xe7, 0x37, 0x1a, 0x6c, 0xef, 0x32, 0xd9, 0xdc, 0xa4, 0x4b, 0x7f, 0x25, 0xbe, 0x54, 0x29, 0xdb, 0xe1, 0xe4, 0x07, 0xf4, 0xd7, 0x07, 0x5b, 0xca, 0x99, 0x61, 0xf4, 0x7f, 0x32, 0xfb, 0xcc, 0x17, 0x1f, 0x06, 0xc4, 0x93, 0xcc, 0x38, 0x47, 0x3c, 0x05, 0xcd, 0xf8, 0xfb, 0xd4, 0xa5, 0xda, 0xc3, 0x13, 0x32, 0xcc, 0xfa, 0x81, 0xfd, 0xc3, 0x60, 0x33, 0xcf, 0x30, 0xe1, 0x0a, 0xeb, 0xf3, 0xaa, 0x81, 0x4e, 0xfe, 0x01, 0xa1, 0xe8, 0xe7, 0x05, 0x81, 0x19, 0x51, 0xce, 0xdb, 0x46, 0xab, 0x2d, 0x8d, 0xe7, 0x12, 0xb0, 0xf1, 0xb3, 0xd1, 0x4f, 0x41, 0x04, 0xf8, 0xce, 0x16, 0x2d, 0x7f, 0xeb, 0x44, 0x18, 0x96, 0xfb, 0xb9, 0x62, 0x29, 0xac, 0xe7, 0xba, 0x12, 0x5f, 0xdb, 0xce, 0x09, 0x81, 0x06, 0x0c, 0xe9, 0xff, 0xa7, 0x5c, 0x0e, 0x42, 0x1b, 0x48, 0x8b, 0xcd, 0xe9, 0x29, 0xd5, 0x7f, 0x41, 0x27, 0x58, 0x19, 0xbd, 0x9d, 0xc0, 0xd9, 0x1e, 0xe2, 0xe0, 0x22, 0x2d, 0x04, 0x45, 0x00, 0x08, 0x7f, 0x2d, 0xe3, 0x16, 0xca, 0xb7, 0xf3, 0xd4, 0xec, 0x17, 0xf8, 0xd0, 0x81, 0x33, 0xfd, 0x19, 0x19, 0x0d, 0xf4, 0xd3, 0x00, 0xfe, 0xfb, 0x81, 0x24, 0x35, 0x1a, 0xf2, 0xdf, 0x13, 0xfc, 0xe9, 0xc1, 0x02, 0x7b, 0x36, 0x09, 0x07, 0x28, 0x64, 0x1f, 0xac, 0xdb, 0xe3, 0xe7, 0x15, 0xfe, 0x7f, 0x26, 0x88, 0x56, 0x17, 0x30, 0xc1, 0x09, };
const int32_t bias9[48] = {38320, 9783, 22139, -9014, 4530, 10748, 4490, 4013, 2454, 17286, 1496, 20133, 6183, -64687, 7998, 3778, 16043, -6265, 8615, 7323, 2432, -2925, -39599, -2517, 9828, 3586, 6146, 22081, 2238, 7394, 21569, 107, 13290, 3531, 8038, 14912, 14954, -3782, 8817, -789, 3922, 11862, 5413, 15956, 5212, 2991, 1164, 12471, };
const float scales9[48] = {0.002472793175144089, 0.006617808905736231, 0.005084517101192334, 0.007440172408340469, 0.005566838003326092, 0.009199549065762914, 0.011046804476412748, 0.007956745230122247, 0.008731545835762054, 0.006461649729743429, 0.013932322455800386, 0.004089468465558025, 0.011974782730113003, 0.0009863254217034418, 0.00809645609028346, 0.022459788118350442, 0.010071495721193629, 0.008156478023987708, 0.010594248149141663, 0.006408132755829235, 0.014020771106040886, 0.014472602782058969, 0.0007063602789627, 0.013089436850838031, 0.012734177102226008, 0.00947502217619654, 0.012890771491507785, 0.005606132904142951, 0.011721388243351335, 0.008766009023996952, 0.005889029464548095, 0.007809063206178029, 0.007183403962246318, 0.012166131858279574, 0.0047295378116293954, 0.008347051796440427, 0.0069456718721730435, 0.011394342358174284, 0.006042088802199892, 0.009334178916409646, 0.0101996449079378, 0.006959097990869307, 0.008470354481801556, 0.006939907408780007, 0.016780728995216574, 0.01535431744060411, 0.009208326219204867, 0.006804065932787512, };
const int32_t shift9[48] = {-8, -7, -7, -7, -7, -6, -6, -6, -6, -7, -6, -7, -6, -9, -6, -5, -6, -6, -6, -7, -6, -6, -10, -6, -6, -6, -6, -7, -6, -6, -7, -7, -7, -6, -7, -6, -7, -6, -7, -6, -6, -7, -6, -7, -5, -6, -6, -7, };
const int32_t multiplier9[48] = {1359432425, 1819089461, 1397621419, 2045139019, 1530200779, 1264376396, 1518261246, 1093566737, 1200054522, 1776164753, 1914843818, 1124104532, 1645801606, 1084476270, 1112768452, 1543424887, 1384215832, 1121017804, 1456062378, 1761454119, 1927000108, 1989099380, 1553302680, 1798998502, 1750171974, 1302237132, 1771694143, 1541002079, 1610975333, 1204791106, 1618764093, 2146538949, 1974559046, 1672100430, 1300045454, 1147210063, 1909211747, 1566026489, 1660836724, 1282879782, 1401828522, 1912902290, 1164156656, 1907627223, 1153162916, 2110281320, 1265582719, 1870287402, };
const unsigned char CHWweight10[432] = {0x06, 0x7f, 0x00, 0xef, 0x8a, 0xf3, 0xfe, 0xfa, 0x03, 0xf2, 0x3c, 0xec, 0xdb, 0x36, 0xd4, 0xcc, 0x7f, 0xd1, 0xcf, 0x8b, 0xbc, 0x16, 0x7f, 0x1e, 0xde, 0xdc, 0xdf, 0xfe, 0x06, 0x01, 0x1e, 0x81, 0x23, 0x10, 0x05, 0x0a, 0x0d, 0x26, 0xf0, 0x7d, 0x81, 0xfe, 0x13, 0xd7, 0xfc, 0x06, 0x7f, 0x84, 0xdf, 0xf3, 0x5e, 0x14, 0xbd, 0x33, 0x07, 0xe9, 0x03, 0x3a, 0xce, 0x1d, 0xbf, 0x7f, 0xe7, 0x02, 0x06, 0x01, 0xec, 0x9c, 0xf1, 0x06, 0x7f, 0x0f, 0x08, 0x49, 0x06, 0x4c, 0x81, 0x2f, 0x1a, 0x09, 0x0f, 0x07, 0xfc, 0xfb, 0x1d, 0x5a, 0x81, 0xf8, 0x10, 0xf6, 0x05, 0x0a, 0x07, 0x15, 0x81, 0x1b, 0xe7, 0x79, 0xeb, 0x06, 0xf0, 0x00, 0xea, 0x81, 0xed, 0x13, 0x76, 0x1c, 0xff, 0xde, 0xed, 0xe3, 0xaf, 0x7d, 0xe8, 0x02, 0x7f, 0xa4, 0x91, 0x90, 0x41, 0x81, 0xf4, 0x1b, 0xc0, 0xdc, 0xbb, 0x36, 0xfa, 0x7f, 0x09, 0xe7, 0x1a, 0xad, 0x02, 0xfb, 0x07, 0xd8, 0xfa, 0xce, 0x7f, 0xf7, 0xed, 0x23, 0x06, 0xe7, 0xff, 0xf3, 0x8b, 0xf0, 0xf0, 0x7f, 0xf9, 0xf9, 0x7f, 0x1f, 0x67, 0x03, 0x4a, 0x18, 0x2e, 0x2b, 0xfa, 0xd0, 0xfa, 0xe5, 0x7f, 0xc9, 0xea, 0x22, 0xf0, 0xf6, 0x0b, 0xfd, 0x01, 0x81, 0xfb, 0x29, 0x5c, 0x1a, 0xe7, 0xd4, 0x00, 0x2b, 0x53, 0x8e, 0x15, 0x7f, 0xae, 0xeb, 0x7f, 0xeb, 0xd3, 0x9b, 0xcf, 0xfa, 0x07, 0xfb, 0xc7, 0x5b, 0xb4, 0xd2, 0x7f, 0xfa, 0x33, 0x1f, 0x0a, 0xae, 0x7f, 0x10, 0xbb, 0x27, 0xd1, 0x12, 0xaa, 0x04, 0x09, 0xf5, 0x01, 0x00, 0x81, 0x7a, 0xf5, 0xf6, 0xf5, 0x01, 0x50, 0x04, 0xd9, 0x81, 0xbc, 0x29, 0xdc, 0x18, 0xf9, 0x7f, 0xa6, 0xda, 0xd2, 0xe2, 0x2f, 0xd5, 0x10, 0xe4, 0x7f, 0x0d, 0x1a, 0xd4, 0xc2, 0x13, 0xcb, 0x04, 0xdf, 0x4a, 0xeb, 0x22, 0x7f, 0x33, 0xfc, 0x39, 0x11, 0x07, 0xa3, 0x3b, 0x05, 0x7f, 0xcc, 0x03, 0x08, 0xf0, 0xef, 0xf9, 0xfa, 0xe2, 0x7f, 0xf0, 0xb5, 0x09, 0xbb, 0x08, 0x7d, 0x23, 0x19, 0x81, 0x19, 0x02, 0xf5, 0xf3, 0xf8, 0x0c, 0xf8, 0xf6, 0x71, 0x03, 0x0b, 0x81, 0xff, 0x2d, 0xec, 0x21, 0xf8, 0x95, 0xce, 0x57, 0x6b, 0x7f, 0x51, 0x7f, 0xbb, 0x3d, 0x64, 0xc9, 0x3e, 0x56, 0x0f, 0x06, 0x7f, 0xde, 0xdb, 0xbf, 0x2d, 0x02, 0xd7, 0x0c, 0x04, 0xee, 0x0c, 0xe3, 0x97, 0x7f, 0x05, 0xfe, 0xf6, 0xf9, 0x05, 0xeb, 0x22, 0x7f, 0x27, 0xf1, 0x38, 0xca, 0x0e, 0xf2, 0xff, 0xf7, 0xa2, 0x7f, 0x0b, 0xe9, 0x09, 0xe5, 0x23, 0xe4, 0x59, 0x7f, 0x5d, 0xf5, 0x2b, 0xfb, 0x11, 0x51, 0x16, 0x13, 0x81, 0x32, 0xf6, 0xe2, 0xfa, 0xf5, 0x08, 0xf1, 0x07, 0x84, 0xf5, 0xf9, 0x7f, 0x05, 0x0e, 0x03, 0xf7, 0xbe, 0x7f, 0x03, 0x08, 0x12, 0x0e, 0x25, 0x81, 0xfc, 0x9e, 0x6a, 0x00, 0xfd, 0x14, 0xff, 0xeb, 0xd8, 0xf6, 0xb2, 0x81, 0xb8, 0xa5, 0x1a, 0xae, 0xf7, 0xfd, 0x0f, 0xf3, 0x01, 0x7f, 0xfb, 0x0d, 0xfd, 0xf9, 0x81, 0xf7, 0x16, 0xdb, 0x1f, 0xf9, 0xe3, 0x02, 0x0d, 0xde, 0x10, 0xa9, 0xda, 0x7f, 0x14, 0xee, 0xf4, };
const int32_t offsetBias10[48] = {-1406, 8661, 9867, 9887, -1050, 24493, 1123, 2393, 20850, -1013, 1572, -21, 2531, 686413, 19145, 3721, -1047, 62342, -1233, 999, -5282, -1479, 1197560, 2310, -462, -9325, -9642, 999, 25870, 2093, -2744, 4411, -1219, 30797, -978, 1303, -2262, 18930, 112, 35911, -1932, -797, 6089, -8028, -43928, 14836, 44, -2128, };
const int32_t offsetRBias10[48] = {0, 0, 0, 0, 0, 0, 0, 0, 0, 0, 0, 0, 0, 0, 0, 0, 0, 0, 0, 0, 0, 0, 0, 0, 0, 0, 0, 0, 0, 0, 0, 0, 0, 0, 0, 0, 0, 0, 0, 0, 0, 0, 0, 0, 0, 0, 0, 0, };
const float scales10[48] = {0.035429537296295166, 0.006059478968381882, 0.003818697761744261, 0.01162756234407425, 0.011977748945355415, 0.004361572675406933, 0.011878381483256817, 0.010594331659376621, 0.006969716865569353, 0.025283856317400932, 0.00921990443021059, 0.01802820898592472, 0.007256686221808195, 0.0001823011989472434, 0.004889971110969782, 0.008836251683533192, 0.007921443320810795, 0.0031923719216138124, 0.011716345325112343, 0.014336156658828259, 0.0077295806258916855, 0.006121024955064058, 0.00010924565140157938, 0.007250538095831871, 0.0071492563001811504, 0.013384286314249039, 0.008932894095778465, 0.012051930651068687, 0.004960714373737574, 0.01140917744487524, 0.010603625327348709, 0.009168817661702633, 0.012300061993300915, 0.0031375845428556204, 0.005000377539545298, 0.010886993259191513, 0.01791226491332054, 0.007398618385195732, 0.01676005683839321, 0.007843943312764168, 0.01237387303262949, 0.013633660040795803, 0.014041822403669357, 0.014405196532607079, 0.004634340759366751, 0.0076044159941375256, 0.005826309323310852, 0.019490830600261688, };
const int32_t shift10[48] = {-4, -7, -8, -6, -6, -7, -6, -6, -7, -5, -6, -5, -7, -12, -7, -6, -6, -8, -6, -6, -7, -7, -13, -7, -7, -6, -6, -6, -7, -6, -6, -6, -6, -8, -7, -6, -5, -7, -5, -6, -6, -6, -6, -6, -7, -7, -7, -5, };
const int32_t multiplier10[48] = {1217349632, 1665616896, 2099351296, 1598080000, 1646209280, 1198899968, 1632552320, 1456073856, 1915821184, 1737493376, 1267174016, 1238889088, 1994702720, 1603538304, 1344145024, 1214445184, 1088714880, 1755025024, 1610282240, 1970346368, 2124690944, 1682534528, 1921869824, 1993012736, 1965172608, 1839522304, 1227727616, 1656404736, 1363590784, 1568065408, 1457351168, 1260152704, 1690507648, 1724905344, 1374493312, 1496296960, 1230921472, 2033716736, 1151742336, 1078063360, 1700652160, 1873795968, 1929893376, 1979835136, 1273877888, 2090285952, 1601523712, 1339399680, };
const unsigned char weight11[768] = {0x04, 0x00, 0x11, 0x06, 0x17, 0x0c, 0x2a, 0x31, 0xff, 0xd6, 0x1a, 0x57, 0xe3, 0x21, 0xf5, 0xe2, 0xd6, 0xf5, 0x0a, 0x0f, 0xd7, 0x09, 0x1f, 0x22, 0x0a, 0x1a, 0x0e, 0xd8, 0xe4, 0xf0, 0x58, 0x0c, 0xc9, 0x2a, 0x08, 0xc9, 0xbe, 0xba, 0xe7, 0x00, 0x21, 0x7f, 0x0d, 0x01, 0xe8, 0x21, 0xe0, 0xe2, 0x01, 0xfa, 0x34, 0x55, 0x0b, 0x36, 0x56, 0xc7, 0x27, 0x33, 0x13, 0x1c, 0xd8, 0x30, 0x08, 0xbd, 0x07, 0x68, 0xb8, 0x05, 0xda, 0x0e, 0x2e, 0xc8, 0x0a, 0xcc, 0x3a, 0xf1, 0xe9, 0x41, 0xf8, 0x13, 0x24, 0xc7, 0x0e, 0xdb, 0x2e, 0x7f, 0xaa, 0xad, 0xc5, 0x1e, 0x0c, 0x28, 0x1f, 0x96, 0x64, 0x04, 0xe1, 0x07, 0xc8, 0x2a, 0x71, 0xac, 0x2d, 0xbf, 0x85, 0xe7, 0x3c, 0x1b, 0x2f, 0xf9, 0x54, 0x22, 0x07, 0xaa, 0x19, 0x96, 0xd9, 0x32, 0xf9, 0xb8, 0x08, 0x21, 0x21, 0x5d, 0xc1, 0xee, 0x79, 0x59, 0xcf, 0xe9, 0xcf, 0xec, 0x1f, 0x98, 0xf7, 0xb0, 0xe2, 0x18, 0x61, 0x08, 0x1d, 0x7f, 0x23, 0x1f, 0xf6, 0xeb, 0x81, 0xc4, 0x1a, 0x40, 0x08, 0xed, 0x43, 0x1c, 0x3d, 0x8d, 0xf9, 0xe0, 0x18, 0xfb, 0x3f, 0x12, 0x2f, 0xe7, 0x11, 0x38, 0xe1, 0x17, 0x36, 0xf2, 0xf3, 0x33, 0xda, 0xfa, 0xdf, 0x3c, 0x40, 0x2c, 0x0a, 0x2d, 0x0b, 0xf1, 0xef, 0xee, 0x01, 0xff, 0x2a, 0x0a, 0x1f, 0x10, 0x5e, 0x10, 0x3e, 0xf9, 0xa3, 0xdf, 0x18, 0xe3, 0xdb, 0x33, 0x8b, 0xfa, 0x50, 0xcd, 0x30, 0xd2, 0xc5, 0xfb, 0x81, 0x9f, 0x3b, 0xf6, 0x08, 0xce, 0xd5, 0x4a, 0x08, 0x26, 0x37, 0x3c, 0xd9, 0x20, 0x0c, 0x1b, 0xc7, 0xf6, 0x25, 0x2a, 0xff, 0xab, 0xf1, 0xfb, 0x2a, 0xe3, 0xe3, 0x12, 0x13, 0x0f, 0xe5, 0x2e, 0xff, 0xc3, 0x3b, 0x23, 0xe7, 0xa5, 0x20, 0xd7, 0x26, 0x3c, 0x0f, 0x7f, 0xeb, 0xe3, 0xbc, 0xf6, 0x29, 0xc3, 0x15, 0x32, 0x21, 0xb3, 0xe4, 0xfb, 0xd1, 0xe9, 0x05, 0xd4, 0xda, 0x3f, 0x01, 0x17, 0x67, 0x03, 0xf0, 0x37, 0x44, 0x3c, 0x0d, 0xcd, 0xf3, 0x04, 0xc5, 0x15, 0x0e, 0x56, 0xc8, 0x2c, 0xc0, 0xdb, 0xda, 0x4c, 0x1c, 0x1a, 0xff, 0x5a, 0x5a, 0xfd, 0x2d, 0xa6, 0xf9, 0xff, 0x46, 0x21, 0x32, 0xe8, 0x26, 0xe9, 0xf9, 0x13, 0xff, 0xcd, 0x10, 0xf0, 0xff, 0x26, 0xb4, 0xf2, 0x40, 0xd9, 0xf3, 0x12, 0xc6, 0x26, 0x35, 0xa9, 0xe7, 0x81, 0x1c, 0x63, 0xf5, 0xda, 0x31, 0xa7, 0x3e, 0x03, 0xd5, 0xfb, 0x53, 0xf5, 0x60, 0x1f, 0x05, 0xb2, 0x22, 0x11, 0xf2, 0x26, 0x17, 0x0e, 0x60, 0xb6, 0x3f, 0xc4, 0x07, 0xed, 0xbb, 0xd6, 0x0d, 0xe5, 0xed, 0xc7, 0x69, 0x48, 0xd3, 0xe9, 0xca, 0xc2, 0x44, 0x7f, 0xfd, 0x8b, 0x05, 0x30, 0xae, 0xd7, 0xef, 0xfb, 0x21, 0x35, 0x0c, 0x2a, 0x11, 0xff, 0x0a, 0xcd, 0x81, 0xc1, 0x56, 0x39, 0xe8, 0x20, 0x00, 0x59, 0xf0, 0xc2, 0x11, 0x01, 0x74, 0x29, 0xe4, 0xea, 0xe3, 0x32, 0x0e, 0xed, 0x01, 0x2c, 0x33, 0xdc, 0x36, 0xc7, 0x01, 0x36, 0xb7, 0x29, 0xd3, 0x23, 0x01, 0xdd, 0x45, 0x15, 0x10, 0xd1, 0x13, 0x30, 0x26, 0x7f, 0x15, 0x13, 0x13, 0x47, 0x41, 0x1b, 0x7f, 0x42, 0x06, 0xba, 0xf2, 0x18, 0x3c, 0x02, 0x2e, 0x20, 0xfc, 0x27, 0x47, 0xe2, 0x09, 0x6b, 0xde, 0x42, 0xda, 0xb1, 0x25, 0x03, 0xf4, 0x4c, 0xff, 0x4b, 0xe1, 0x12, 0xde, 0x28, 0x21, 0xf5, 0xe2, 0x23, 0xe1, 0x34, 0x1a, 0xfa, 0xff, 0xd3, 0x1d, 0x1a, 0x41, 0x38, 0xf8, 0xf2, 0xfa, 0xf5, 0x18, 0xe2, 0x1d, 0x08, 0x06, 0xbf, 0x10, 0x16, 0xfa, 0x14, 0xd5, 0x0f, 0xf4, 0x27, 0xbd, 0xeb, 0x1e, 0xa6, 0x20, 0xfd, 0x0e, 0x30, 0x31, 0xf9, 0xfb, 0xd6, 0xe4, 0x36, 0xf0, 0x0e, 0x81, 0xee, 0xff, 0x25, 0x0d, 0xfe, 0x1d, 0xdc, 0x06, 0xe5, 0x12, 0x02, 0xfe, 0xad, 0xf2, 0xfc, 0xd0, 0xd5, 0x4d, 0x49, 0x15, 0x41, 0xf2, 0xd6, 0x22, 0x08, 0x20, 0xc7, 0xe0, 0x1b, 0x0b, 0x08, 0xdd, 0xb3, 0x1d, 0xe7, 0x0d, 0x3d, 0x1a, 0x3f, 0x46, 0x21, 0xf6, 0x16, 0xaf, 0x06, 0x21, 0x1e, 0xd4, 0xff, 0xf1, 0x33, 0xd5, 0xd9, 0xc5, 0xe8, 0x1b, 0x2b, 0x35, 0xe8, 0x16, 0xcc, 0x7f, 0xf7, 0xb4, 0xb1, 0xef, 0xda, 0x45, 0xe0, 0xe3, 0x32, 0x40, 0x2a, 0x03, 0xdd, 0x79, 0x06, 0xda, 0xb7, 0xa2, 0x01, 0x17, 0xe2, 0x40, 0xf2, 0x05, 0xed, 0x81, 0xb9, 0x54, 0x2c, 0x21, 0xaf, 0x0d, 0xb1, 0xab, 0xa8, 0x1f, 0xd9, 0x5f, 0x1a, 0x70, 0x04, 0xc6, 0x16, 0xd7, 0xdc, 0xb9, 0x7e, 0xbb, 0x68, 0x0a, 0x31, 0xff, 0x2d, 0xb6, 0x78, 0x10, 0xf1, 0x40, 0x09, 0xfe, 0x08, 0xc3, 0x37, 0xd3, 0xfa, 0x15, 0x5b, 0x35, 0xe5, 0x05, 0x10, 0x34, 0x6b, 0x22, 0xbc, 0x03, 0x81, 0xab, 0xc0, 0x27, 0xc8, 0x0e, 0x60, 0xf2, 0x07, 0xf3, 0x21, 0x3e, 0xb4, 0x7f, 0xf5, 0xf8, 0xc3, 0x4a, 0xb3, 0x70, 0x20, 0x03, 0xd8, 0x0b, 0xbd, 0x17, 0x13, 0x26, 0x0d, 0x7f, 0xff, 0xfa, 0xd0, 0x00, 0x0b, 0xe0, 0xfe, 0xe2, 0xf9, 0x0c, 0x09, 0x15, 0x26, 0x0b, 0x15, 0xdd, 0xfe, 0x01, 0x0c, 0xee, 0xf1, 0x1b, 0xdc, 0x1d, 0xf9, 0xf7, 0x02, 0x28, 0x28, 0xe1, 0xf7, 0x07, 0xfc, 0xf6, 0xef, 0xf4, 0x25, 0x11, 0xd4, 0xc7, 0x6b, 0x3b, 0x1c, 0xd2, 0x7f, 0xf4, 0xb1, 0xbf, 0xee, 0xcc, 0xc5, 0x20, 0x11, 0xe1, 0xcd, 0x47, 0xf4, 0xcc, 0x27, 0xff, 0xec, 0x11, 0x64, 0xd1, 0xdd, 0xf3, 0xd4, 0x23, 0xb0, 0xec, 0xbc, 0x2e, 0x35, 0x08, 0xb7, 0x3a, 0xf4, 0xfd, 0x1b, 0xcb, 0x3e, 0xd8, 0xb7, 0xe6, 0x35, 0xc6, 0xf4, };
const int32_t bias11[16] = {-24791, -54349, -7415, -11525, 36844, 10445, -40526, -19418, -11836, -53389, -3578, -59877, 21027, -58918, -9941, -17952, };
const float scales11[16] = {0.0016861894965794222, 0.0013154399414734852, 0.0013240255802685432, 0.0018678305611576006, 0.0015397203543845543, 0.002348444599266355, 0.0011131533650533619, 0.0019841031329725727, 0.0013404645291719862, 0.0012460037756951115, 0.0018537892013290856, 0.0018350548091574574, 0.0014437555039033966, 0.0011222152586723567, 0.0018549047186602191, 0.002017554465988977, };
const int32_t shift11[16] = {-9, -9, -9, -9, -9, -8, -9, -8, -9, -9, -9, -9, -9, -9, -9, -8, };
const int32_t multiplier11[16] = {1853984958, 1446341511, 1455781521, 2053701421, 1692940433, 1291071072, 1223925068, 1090772233, 1473856336, 1369995640, 2038262782, 2017664100, 1587425964, 1233888726, 2039489307, 1109162298, };
const unsigned char weight12[768] = {0x54, 0x9d, 0xd7, 0x7f, 0x4b, 0x04, 0x79, 0x74, 0xcb, 0x79, 0x78, 0x16, 0x0c, 0x4b, 0xc9, 0xff, 0x81, 0x16, 0x54, 0xf4, 0x25, 0x21, 0x16, 0x18, 0xe2, 0x10, 0x1c, 0x35, 0xe6, 0x21, 0xe5, 0xfb, 0xe5, 0xf1, 0xf6, 0x1b, 0x11, 0x57, 0x10, 0x81, 0xe0, 0xe4, 0x16, 0x1f, 0xef, 0x32, 0xdc, 0xe4, 0x0f, 0x55, 0x3f, 0x70, 0x53, 0xe3, 0x63, 0x81, 0xee, 0x59, 0xdf, 0x0d, 0x14, 0xc3, 0xe7, 0x93, 0x06, 0x71, 0xf1, 0x34, 0x1a, 0x15, 0xbf, 0x31, 0x0e, 0x18, 0xfc, 0x7f, 0xe6, 0x12, 0xcb, 0x16, 0x1e, 0x11, 0xa1, 0x9f, 0xcd, 0x08, 0x58, 0x05, 0x60, 0x52, 0x81, 0x44, 0x13, 0x24, 0xb5, 0x2c, 0x04, 0x25, 0x7f, 0xec, 0x0f, 0xd9, 0x0b, 0x4b, 0xe5, 0x3a, 0xb5, 0xe7, 0x2c, 0xbe, 0xf1, 0xa2, 0x34, 0xb7, 0xfb, 0x1c, 0x57, 0x3d, 0x6a, 0x81, 0x20, 0x01, 0x45, 0x76, 0xaf, 0xff, 0x20, 0x23, 0xf8, 0x02, 0x1e, 0x7f, 0x3e, 0xfe, 0x3a, 0xeb, 0xb1, 0xd4, 0xc4, 0x30, 0x70, 0x10, 0x08, 0x52, 0x2e, 0x7f, 0xdb, 0x3a, 0xf0, 0xf9, 0xef, 0x03, 0xfc, 0x48, 0xfb, 0x09, 0xdd, 0x2a, 0x28, 0xf9, 0x2b, 0x28, 0x08, 0xd7, 0x7f, 0xea, 0x35, 0xd9, 0x09, 0x17, 0xd7, 0xec, 0x1a, 0x74, 0x29, 0xe3, 0x40, 0xfd, 0x4f, 0x14, 0x0b, 0x22, 0x4d, 0xed, 0x3f, 0x81, 0x9a, 0x66, 0xcb, 0x4c, 0x20, 0xee, 0x0f, 0x18, 0x2e, 0x24, 0xb6, 0x45, 0x7f, 0xfd, 0x17, 0xce, 0x79, 0x5f, 0x31, 0x2f, 0x05, 0xa0, 0xff, 0x09, 0x41, 0x14, 0xde, 0xbf, 0x19, 0xd2, 0xfc, 0xec, 0xfc, 0xe7, 0x81, 0x4b, 0xcc, 0xc4, 0x91, 0x15, 0x61, 0xdd, 0xef, 0xd2, 0xb8, 0x0d, 0xd1, 0x81, 0x3d, 0x57, 0x34, 0x18, 0xb7, 0x58, 0x02, 0x8c, 0x7f, 0xd3, 0x6c, 0x6e, 0x3d, 0x0c, 0x1e, 0xcd, 0xe1, 0x53, 0xb0, 0xaa, 0xe9, 0x4d, 0x1a, 0x2d, 0x08, 0xf4, 0x0e, 0xd9, 0xf5, 0x0f, 0x81, 0x34, 0x0f, 0xe4, 0x03, 0x5d, 0xf9, 0x36, 0x10, 0x0f, 0x14, 0x15, 0x35, 0xef, 0x20, 0x59, 0x05, 0xec, 0x39, 0x43, 0xd2, 0x7f, 0x0f, 0x33, 0x51, 0xfe, 0x18, 0x11, 0xc1, 0x7f, 0x0d, 0x28, 0xc6, 0x19, 0xc1, 0xfe, 0x9a, 0x14, 0xcf, 0xd0, 0xed, 0x28, 0x43, 0x7f, 0xf4, 0x04, 0x66, 0x02, 0x2a, 0x07, 0x62, 0x69, 0xd0, 0xd4, 0x66, 0x8b, 0x25, 0x0e, 0x2c, 0x1b, 0xd6, 0xf2, 0x13, 0xe8, 0xd3, 0x01, 0xe8, 0xf9, 0x09, 0x33, 0x81, 0xd1, 0xf2, 0x38, 0xf2, 0x0b, 0xdf, 0x2b, 0x3a, 0x1c, 0xf7, 0xe4, 0x03, 0xef, 0x7f, 0x4a, 0xdc, 0xa1, 0x28, 0x34, 0x28, 0x1c, 0xef, 0xe6, 0xeb, 0x03, 0xc3, 0x17, 0x21, 0x7f, 0xe6, 0x0b, 0xfc, 0xfb, 0x7f, 0x37, 0x1e, 0xd6, 0xec, 0x35, 0x4b, 0x06, 0xdb, 0x1f, 0x3f, 0x10, 0x13, 0x28, 0x46, 0x01, 0xd6, 0x1f, 0x3e, 0x4b, 0x2d, 0x03, 0x4d, 0xe5, 0x1e, 0x04, 0xe3, 0x81, 0xe4, 0x45, 0xd7, 0x31, 0x22, 0x38, 0x7f, 0x06, 0x2b, 0xcf, 0xe9, 0xfd, 0xe9, 0x06, 0x11, 0x07, 0x1b, 0xd7, 0x04, 0xb5, 0x54, 0x1b, 0x31, 0xbb, 0xfc, 0x33, 0x90, 0x0d, 0x50, 0x17, 0x6f, 0xde, 0x99, 0x46, 0xa0, 0x81, 0x6a, 0x7e, 0x3c, 0x37, 0x14, 0x19, 0x7f, 0xd0, 0xfe, 0x35, 0xfa, 0xf4, 0x28, 0xf2, 0xd9, 0x67, 0x5e, 0xcd, 0x52, 0xba, 0x70, 0xfa, 0xd9, 0xd0, 0x93, 0x3b, 0xd4, 0x18, 0x81, 0xce, 0x11, 0x51, 0x1a, 0x00, 0x09, 0x1b, 0x4e, 0xfc, 0x2b, 0x59, 0xff, 0xf5, 0x31, 0x49, 0xec, 0x7f, 0x1a, 0x49, 0xea, 0xd7, 0x44, 0x1f, 0x60, 0xf5, 0x55, 0xe4, 0xe1, 0xa0, 0x30, 0x27, 0x7f, 0xf3, 0x7c, 0xd7, 0xb9, 0xde, 0x04, 0x25, 0x7f, 0x02, 0xc3, 0x30, 0xd2, 0xe2, 0xed, 0x0e, 0x08, 0x4c, 0xd6, 0xf2, 0x2c, 0x3b, 0x7f, 0xe7, 0x47, 0xbb, 0x1b, 0x51, 0xf7, 0x42, 0xfc, 0x1a, 0x07, 0xaa, 0x17, 0xa2, 0xea, 0xe3, 0x1c, 0xf6, 0x5d, 0x17, 0xa7, 0xf0, 0x7f, 0x95, 0x01, 0x9a, 0xc5, 0xeb, 0x1b, 0x0e, 0x07, 0x4c, 0xe3, 0x43, 0x24, 0x0b, 0x81, 0xf6, 0xea, 0xcc, 0xa8, 0x45, 0x50, 0x07, 0xcc, 0xb3, 0xb9, 0x2c, 0x3a, 0xf1, 0xea, 0x31, 0xd5, 0x20, 0x25, 0xcc, 0xf6, 0x3a, 0xe0, 0xe0, 0x81, 0x31, 0x81, 0x09, 0x12, 0x2d, 0x92, 0xda, 0x29, 0xee, 0xb4, 0xe5, 0xbd, 0x1f, 0xef, 0x2d, 0x19, 0x98, 0x2d, 0xd9, 0x3e, 0x3a, 0x3c, 0x63, 0x48, 0xfc, 0xff, 0xdb, 0xc7, 0xa7, 0x01, 0x00, 0xe0, 0x81, 0xb7, 0x14, 0x7a, 0x7f, 0xed, 0xf9, 0x79, 0xa0, 0x39, 0xef, 0x2b, 0x50, 0xc8, 0xbe, 0xf7, 0x8d, 0x1a, 0x49, 0x06, 0x2a, 0xd5, 0xd7, 0xbb, 0x40, 0x28, 0xda, 0x1d, 0x44, 0x82, 0x68, 0xdc, 0x81, 0x74, 0xff, 0x16, 0x59, 0x41, 0x5a, 0x07, 0x39, 0x05, 0xf5, 0x2b, 0xe4, 0xea, 0xe9, 0x1b, 0x7f, 0xbb, 0xbe, 0x01, 0xf0, 0x12, 0xd9, 0x9d, 0x91, 0x81, 0xd1, 0xa3, 0xda, 0xc2, 0xef, 0x0d, 0x18, 0xdb, 0x0a, 0x1e, 0xc8, 0x74, 0x9f, 0x86, 0xef, 0x95, 0xe8, 0x0e, 0xcf, 0xf1, 0x46, 0x18, 0x7f, 0xc6, 0x7f, 0x50, 0xb3, 0x12, 0xe8, 0x7e, 0xcd, 0x56, 0x5f, 0x75, 0xfa, 0xff, 0x09, 0x22, 0xed, 0x14, 0x28, 0x1b, 0x1b, 0x45, 0x32, 0xe5, 0x81, 0xdc, 0xc6, 0x50, 0x4b, 0x04, 0xfa, 0x00, 0xe1, 0xd0, 0xc7, 0xfb, 0xae, 0x33, 0xfb, 0x00, 0x3e, 0xff, 0xef, 0xe6, 0x31, 0xe0, 0x7f, 0x18, 0xd2, 0xec, 0xe2, 0xfc, 0x7f, 0x84, 0x52, 0x64, 0x2f, 0xa0, 0xee, 0xa6, 0xf9, 0x09, 0xfa, 0x20, 0x59, 0xfb, 0xf0, 0x20, 0xef, 0x27, 0xe9, 0x7f, 0xfa, 0x0a, 0xe6, 0x4b, 0x18, 0x5b, 0x1f, 0x28, 0x05, };
const int32_t bias12[48] = {15424, 9183, -721, 6212, 8279, 14295, 1478, 13824, -430, 5084, 1325, 15192, 22702, -6741, -4567, -1088, 3273, -469, 4747, 11438, 4901, 6896, 4884, 15050, -880, -4324, 559, 11246, -1094, 2205, -42, -7021, 5436, -17035, -8904, 3837, -5473, -2198, 12561, -5804, 3269, 9392, -16515, 7034, -5037, -2896, -492, 12882, };
const float scales12[48] = {0.006890198419317445, 0.01054174551511618, 0.013483498157329207, 0.007021129547777471, 0.010715297682157728, 0.006139033768337412, 0.011648177145756377, 0.006926990584770788, 0.009817451132632677, 0.013508671775010549, 0.014260071616896686, 0.008603883023637451, 0.006812559678014463, 0.009621112360091154, 0.01041376421886656, 0.007090134091587164, 0.019141279847198704, 0.005835869765107647, 0.009114323931698651, 0.005675599448688991, 0.013873106519592778, 0.012434402793306256, 0.014788339644609464, 0.010487093467098963, 0.00656726901914275, 0.016967212554489592, 0.0059533218804190165, 0.007512368463974785, 0.008708903953941543, 0.006816705356523573, 0.008559326633022606, 0.012793748755546933, 0.006558337030178795, 0.008737199994174834, 0.012468775768717945, 0.01211419681021594, 0.009708628534398554, 0.011270262802973484, 0.005199017840378882, 0.008379409685216083, 0.0134873068458833, 0.0032687311873159683, 0.007218848457999348, 0.006991749991230481, 0.010609080320502926, 0.013879986731174366, 0.007048883829853913, 0.008848959553475248, };
const int32_t shift12[48] = {-7, -6, -6, -7, -6, -7, -6, -7, -6, -6, -6, -6, -7, -6, -6, -7, -5, -7, -6, -7, -6, -6, -6, -6, -7, -5, -7, -7, -6, -7, -6, -6, -7, -6, -6, -6, -6, -6, -7, -6, -6, -8, -7, -7, -6, -6, -7, -6, };
const int32_t multiplier12[48] = {1893963320, 1448846471, 1853157876, 1929953394, 1472699300, 1687484753, 1600913277, 1904076673, 1349300209, 1856617712, 1959889319, 1182508679, 1872622145, 1322315614, 1431256856, 1948921219, 1315378735, 1604151666, 1252663143, 1560096897, 1906705241, 1708971307, 2032493924, 1441335151, 1805197162, 1165977968, 1636436658, 2064984120, 1196942645, 1873761701, 1176384895, 1758359440, 1802741956, 1200831623, 1713695493, 1664962532, 1334343745, 1548973125, 1429095142, 1151657298, 1853681338, 1797003974, 1984301955, 1921877603, 1458100897, 1907650851, 1937582433, 1216191740, };
const unsigned char CHWweight13[432] = {0x1b, 0x3b, 0x32, 0x37, 0x7f, 0x70, 0x28, 0x59, 0x52, 0xec, 0xd0, 0xd5, 0xd0, 0x81, 0x9a, 0xe2, 0x9b, 0xaf, 0x0e, 0x2d, 0x2c, 0x2d, 0x7f, 0x70, 0x24, 0x6c, 0x5a, 0x1d, 0x4b, 0x38, 0x2e, 0x7f, 0x62, 0x08, 0x37, 0x31, 0x02, 0x00, 0xff, 0x20, 0x4d, 0x36, 0x32, 0x7f, 0x5e, 0xe2, 0xca, 0xd8, 0xc4, 0x81, 0x98, 0xd5, 0x9f, 0xaa, 0x1b, 0x36, 0x16, 0x40, 0x7f, 0x46, 0x2b, 0x6b, 0x46, 0x1c, 0x45, 0xd6, 0x23, 0x5a, 0x92, 0xf7, 0x22, 0x81, 0x03, 0x23, 0x11, 0x2f, 0x74, 0x60, 0x35, 0x7f, 0x69, 0x1a, 0x42, 0x32, 0x3a, 0x7f, 0x60, 0x29, 0x62, 0x46, 0x1d, 0x3a, 0x2c, 0x37, 0x7f, 0x68, 0x28, 0x5f, 0x53, 0x0e, 0x1e, 0x1a, 0x38, 0x7f, 0x5b, 0x2a, 0x73, 0x5a, 0xf5, 0xd8, 0xd1, 0x36, 0x1d, 0xa0, 0x5f, 0x7f, 0xda, 0xc4, 0x9a, 0xb9, 0xc9, 0x81, 0x95, 0xf9, 0xbe, 0xc4, 0x0e, 0x2b, 0x27, 0x2b, 0x7f, 0x69, 0x2b, 0x67, 0x4f, 0x20, 0x46, 0x31, 0x37, 0x7f, 0x61, 0x1c, 0x42, 0x34, 0x18, 0x32, 0x1c, 0x31, 0x7f, 0x5f, 0x20, 0x5f, 0x4c, 0x0a, 0x7c, 0x7c, 0xd6, 0x5d, 0x7f, 0xd3, 0x14, 0x2d, 0x1d, 0x3f, 0x39, 0x3a, 0x7f, 0x67, 0x1f, 0x39, 0x27, 0x33, 0x6b, 0x49, 0x2f, 0x7f, 0x65, 0xf6, 0x0b, 0x18, 0xf5, 0xe2, 0xe6, 0xd4, 0x81, 0xa4, 0xd2, 0x8f, 0xa0, 0x16, 0x3d, 0x2b, 0x31, 0x7f, 0x57, 0x22, 0x54, 0x3d, 0x18, 0x45, 0x37, 0x2c, 0x7f, 0x65, 0x25, 0x5c, 0x4b, 0x07, 0x1f, 0x1a, 0x33, 0x7f, 0x5f, 0x2f, 0x79, 0x5a, 0x16, 0x36, 0x21, 0x3c, 0x7f, 0x53, 0x26, 0x69, 0x47, 0x29, 0x64, 0x53, 0x60, 0x7f, 0x52, 0x47, 0x4b, 0x11, 0xdf, 0xaa, 0xb5, 0xb6, 0x81, 0x88, 0xdd, 0xa1, 0xbb, 0x21, 0x41, 0x35, 0x38, 0x7f, 0x64, 0x2b, 0x52, 0x42, 0xfb, 0xe2, 0xe9, 0xd8, 0x81, 0xa5, 0xd5, 0x8d, 0xb0, 0x3d, 0x2d, 0xe3, 0x7f, 0x72, 0xf1, 0x68, 0x68, 0x02, 0xdc, 0xb0, 0xce, 0xc2, 0x81, 0xa2, 0xe6, 0xc5, 0xce, 0x28, 0x47, 0x31, 0x32, 0x7f, 0x5b, 0x12, 0x52, 0x3a, 0xca, 0x0f, 0x3d, 0x81, 0xe8, 0x62, 0x97, 0xd7, 0x2e, 0xe1, 0xbc, 0xd5, 0xc8, 0x81, 0xa2, 0xe3, 0xa7, 0xba, 0x07, 0x23, 0x12, 0x38, 0x7f, 0x6a, 0x19, 0x61, 0x5c, 0xda, 0x9b, 0xcb, 0xb8, 0x85, 0x8e, 0xd8, 0x81, 0x99, 0xef, 0xd2, 0xd9, 0xc8, 0x81, 0x99, 0xcc, 0x86, 0x9a, 0x1c, 0x42, 0x30, 0x2d, 0x7f, 0x66, 0x19, 0x47, 0x3c, 0xe8, 0xc8, 0xe2, 0xe8, 0xea, 0xf0, 0x2f, 0x7f, 0x65, 0xd2, 0xb2, 0xcb, 0xbd, 0x81, 0xaa, 0xce, 0xa1, 0xc0, 0x17, 0x3f, 0x2e, 0x3c, 0x7f, 0x5f, 0x2f, 0x58, 0x42, 0xe3, 0xbf, 0x02, 0xc5, 0xb7, 0x13, 0x25, 0x5c, 0x7f, 0xf3, 0xd1, 0xde, 0xd8, 0x81, 0x95, 0xd7, 0x97, 0xaa, 0x25, 0x4c, 0x34, 0x3f, 0x7f, 0x5f, 0x2c, 0x4e, 0x37, 0x31, 0x6e, 0x39, 0x2a, 0x7f, 0x6e, 0xfb, 0x39, 0x58, 0xf6, 0xda, 0xe1, 0xe6, 0x81, 0x94, 0xe2, 0x89, 0x9c, 0x21, 0x50, 0x36, 0x41, 0x7f, 0x5f, 0x2f, 0x59, 0x46, 0x38, 0x78, 0x58, 0x1b, 0x1b, 0x0d, 0xdc, 0x81, 0x9a, };
const int32_t offsetBias13[48] = {84908, 34982, 80006, 77603, 63063, 22645, 76631, 31413, 100706, 81156, 86451, 96681, 40255, -55686, 82081, 73755, 94775, 58371, 77419, 68423, 33318, 91915, 80225, 82258, 79345, 91281, -65239, 80013, 18270, 65658, -4712, 85930, 4952, -47482, 89083, -76895, -36139, 73548, 14889, -57402, 79717, 33101, -43906, 80427, 81369, -26961, 87062, 32569, };
const int32_t offsetRBias13[48] = {0, 0, 0, 0, 0, 0, 0, 0, 0, 0, 0, 0, 0, 0, 0, 0, 0, 0, 0, 0, 0, 0, 0, 0, 0, 0, 0, 0, 0, 0, 0, 0, 0, 0, 0, 0, 0, 0, 0, 0, 0, 0, 0, 0, 0, 0, 0, 0, };
const float scales13[48] = {0.0025136361364275217, 0.002240268513560295, 0.0032588609028607607, 0.0045182472094893456, 0.0038299746811389923, 0.0024082264862954617, 0.0034956715535372496, 0.003609793959185481, 0.004002315457910299, 0.004638045094907284, 0.0042586373165249825, 0.001964314142242074, 0.0028604839462786913, 0.00803608912974596, 0.0041931006126105785, 0.005028469022363424, 0.0019620710518211126, 0.018582338467240334, 0.0031291323248296976, 0.003985255025327206, 0.0021627068053931, 0.001841008197516203, 0.003823906183242798, 0.0023652270901948214, 0.007623508106917143, 0.0070097241550683975, 0.004479537717998028, 0.0051056696102023125, 0.00280371424742043, 0.01126010064035654, 0.0032307656947523355, 0.003691011108458042, 0.0048494888469576836, 0.005396063439548016, 0.002833764534443617, 0.005379421170800924, 0.003968670032918453, 0.003420810680836439, 0.00503463763743639, 0.007531450595706701, 0.003990099765360355, 0.004464379977434874, 0.005422014743089676, 0.003763061249628663, 0.009544027037918568, 0.0038211988285183907, 0.004106523469090462, 0.003030631924048066, };
const int32_t shift13[48] = {-8, -8, -8, -7, -8, -8, -8, -8, -7, -7, -7, -8, -8, -6, -7, -7, -8, -5, -8, -7, -8, -9, -8, -8, -7, -7, -7, -7, -8, -6, -8, -8, -7, -7, -8, -7, -7, -8, -7, -7, -7, -7, -7, -8, -6, -8, -7, -8, };
const int32_t multiplier13[48] = {1381886080, 1231600640, 1791577728, 1241966336, 2105550848, 1323936512, 1921765760, 1984505216, 1100148096, 1274896128, 1170605312, 1079893120, 1572567680, 1104471680, 1152590720, 1382215040, 1078659968, 1276968576, 1720258688, 1095458560, 1188960640, 2024209920, 2102214656, 1300297344, 2095533952, 1926818304, 1231325952, 1403435776, 1541358208, 1547576448, 1776132224, 2029154816, 1333017344, 1483258624, 1557878528, 1478684032, 1090899712, 1880610560, 1383910656, 2070229376, 1096790272, 1227159424, 1490392064, 2068764800, 1311721088, 2100726272, 1128792576, 1666107520, };
const unsigned char weight14[1536] = {0xf4, 0xb6, 0xdf, 0xbb, 0xac, 0x7c, 0x17, 0xea, 0xbc, 0x3e, 0x07, 0x5b, 0xd7, 0xe3, 0xc8, 0xe9, 0x07, 0x02, 0xed, 0x81, 0xc3, 0x2c, 0xae, 0x6a, 0x73, 0xba, 0x42, 0x3f, 0x47, 0x35, 0x0f, 0x58, 0xfd, 0x05, 0xfc, 0x24, 0x94, 0xcd, 0x1f, 0x0b, 0x21, 0xec, 0xe1, 0x37, 0xc7, 0x59, 0xe5, 0x20, 0xd3, 0x99, 0x18, 0xf5, 0x7f, 0x1f, 0x08, 0x22, 0xc0, 0xc1, 0xeb, 0x98, 0x21, 0xd6, 0xb0, 0x25, 0xd2, 0xbf, 0x0a, 0x1d, 0xb1, 0x05, 0xe9, 0xf1, 0x1f, 0xca, 0xc8, 0x2a, 0x40, 0x00, 0xb5, 0x17, 0x0e, 0x23, 0x21, 0xde, 0x29, 0x06, 0xec, 0xdc, 0xf6, 0x0b, 0xe4, 0x0a, 0xf5, 0x46, 0xb7, 0xe8, 0xd1, 0xb4, 0xfc, 0x28, 0xf1, 0xb6, 0xd6, 0x0f, 0x0e, 0x61, 0x5a, 0xd6, 0x1d, 0x3e, 0x10, 0x25, 0xbf, 0xfb, 0x23, 0x7f, 0x5f, 0x58, 0xa1, 0x45, 0x3a, 0x00, 0xdb, 0xd6, 0x3d, 0xe1, 0xda, 0xca, 0xfe, 0x12, 0xd5, 0xf0, 0x8c, 0xea, 0x01, 0xe8, 0xf7, 0xff, 0xae, 0x0b, 0x0b, 0x0d, 0x0c, 0x22, 0x11, 0x39, 0x4f, 0xf7, 0xc3, 0xe3, 0xdd, 0x97, 0xec, 0x0c, 0xee, 0x09, 0x7f, 0x11, 0x51, 0x17, 0xf3, 0xf2, 0xfb, 0x0d, 0xb8, 0x42, 0x0a, 0x0d, 0xe7, 0x17, 0x0b, 0x31, 0xdb, 0xe4, 0xed, 0x3a, 0x36, 0x11, 0x66, 0x12, 0xfe, 0xeb, 0xd4, 0x10, 0x03, 0x3e, 0x20, 0x44, 0xdd, 0x4d, 0x29, 0xca, 0xc3, 0x7f, 0xd2, 0x10, 0x2f, 0x21, 0xd2, 0x02, 0x2f, 0x38, 0x18, 0x98, 0x0a, 0x08, 0x02, 0xd2, 0x17, 0xff, 0x14, 0xa7, 0x2d, 0x33, 0x11, 0xe8, 0x2e, 0x20, 0xbd, 0xef, 0xec, 0x28, 0x01, 0x04, 0x3a, 0xd5, 0x17, 0x05, 0x29, 0x33, 0xce, 0xc3, 0xf0, 0xdf, 0x04, 0x19, 0x11, 0xe3, 0x23, 0x0d, 0x90, 0xc1, 0xec, 0xab, 0xad, 0x29, 0xcf, 0x13, 0xf0, 0xe7, 0x9e, 0xdc, 0xfe, 0x2b, 0x4b, 0xe8, 0xb0, 0xb4, 0xaa, 0x7a, 0x7f, 0xc0, 0x31, 0xdc, 0x8a, 0xe2, 0x4d, 0xb7, 0x27, 0x89, 0xff, 0x1f, 0x0c, 0x1b, 0x4f, 0x4f, 0x93, 0x9f, 0xf9, 0xf9, 0xee, 0x1b, 0xe3, 0xf4, 0xcf, 0x02, 0xd9, 0xeb, 0xf1, 0x41, 0x12, 0xeb, 0x06, 0xd5, 0xfe, 0x01, 0xb7, 0x81, 0x4f, 0x08, 0x03, 0x06, 0x2f, 0xf7, 0x20, 0x1d, 0xf2, 0x1a, 0xbe, 0x54, 0xdf, 0x0a, 0x16, 0xfb, 0x36, 0xc9, 0x19, 0x16, 0xf3, 0xe4, 0x19, 0x02, 0xe4, 0xfa, 0x09, 0xea, 0xf2, 0xf9, 0xda, 0xf7, 0xde, 0xd5, 0xfd, 0x0a, 0xef, 0x16, 0xff, 0x81, 0xaa, 0x1e, 0x39, 0xc6, 0xca, 0xf8, 0x4e, 0x11, 0x24, 0x0f, 0x1c, 0xc9, 0x15, 0x98, 0xe7, 0x28, 0xe8, 0xab, 0x32, 0xe1, 0xaf, 0x1e, 0xd9, 0x14, 0xfa, 0xf3, 0x04, 0x00, 0xb4, 0xf8, 0x01, 0x0d, 0xfb, 0xe7, 0x27, 0x1f, 0xf8, 0x56, 0x1b, 0x2e, 0x32, 0xd8, 0x28, 0x08, 0xcc, 0xfd, 0x17, 0xe2, 0xee, 0x58, 0x9c, 0xfe, 0xbc, 0x7f, 0xc6, 0x55, 0xe3, 0x3d, 0x0a, 0x46, 0x0f, 0x21, 0xe3, 0x01, 0xd2, 0xeb, 0xf7, 0x68, 0xc9, 0x1f, 0xe1, 0xe9, 0xfc, 0x4b, 0xae, 0x08, 0x63, 0xf2, 0xd2, 0xf3, 0x11, 0x10, 0x56, 0x06, 0xdd, 0xec, 0xcf, 0x16, 0x0d, 0xcd, 0x2a, 0x2b, 0x10, 0xc0, 0x0c, 0xcf, 0xc3, 0x4d, 0xc8, 0x3c, 0xfc, 0x0a, 0xf2, 0xba, 0x51, 0xc4, 0x09, 0xf6, 0xf3, 0xfb, 0xee, 0xf8, 0x41, 0xef, 0xa9, 0x9f, 0xeb, 0xeb, 0x15, 0xe2, 0x03, 0x09, 0x37, 0x01, 0x28, 0x92, 0xf7, 0x3c, 0x5f, 0xea, 0xec, 0x1d, 0x16, 0xfd, 0xd6, 0x1a, 0xdf, 0x1c, 0x0e, 0x0c, 0x7f, 0x07, 0x7f, 0x5d, 0xf8, 0xf8, 0x16, 0xd2, 0x07, 0xfe, 0xf3, 0x4d, 0x32, 0xc8, 0x00, 0x2b, 0x1e, 0x33, 0xe3, 0x12, 0xd6, 0xf3, 0xf3, 0xe9, 0xf4, 0xd3, 0xf7, 0xcf, 0xfd, 0xa3, 0x1d, 0x31, 0x07, 0xde, 0xab, 0xe9, 0x13, 0x04, 0xd6, 0xc9, 0x25, 0x0d, 0x26, 0x1d, 0x31, 0xff, 0x03, 0x40, 0xb7, 0x2b, 0x1d, 0xf5, 0x92, 0xdd, 0xf9, 0x30, 0x13, 0xd7, 0x19, 0x0a, 0x42, 0x0c, 0xda, 0x1e, 0x12, 0x1e, 0x07, 0xd4, 0x0a, 0x46, 0xda, 0xf7, 0xd4, 0x0c, 0xf1, 0x2d, 0xe7, 0x18, 0xe6, 0xe6, 0x07, 0xdd, 0x1c, 0x2e, 0x03, 0x07, 0xf4, 0xe4, 0xbb, 0xf6, 0x39, 0xf0, 0x2d, 0xf6, 0x81, 0x06, 0xd4, 0xa3, 0xd0, 0x01, 0x18, 0x03, 0xe4, 0xc4, 0x1f, 0xed, 0x21, 0x25, 0xd3, 0x1c, 0xfe, 0xa4, 0xe1, 0xc2, 0x37, 0xe4, 0x0d, 0x43, 0x1b, 0xcf, 0xa5, 0xec, 0xd0, 0x09, 0xfb, 0xec, 0x19, 0x7f, 0x16, 0xc6, 0xed, 0x18, 0xc8, 0x0b, 0x3a, 0x30, 0xf5, 0xb6, 0x02, 0x37, 0xb6, 0xeb, 0xf2, 0x6a, 0x03, 0x16, 0x81, 0xfa, 0x08, 0xfd, 0x37, 0xc5, 0x3b, 0xe9, 0xf6, 0xea, 0xeb, 0x09, 0xdc, 0xd9, 0x00, 0x26, 0xd1, 0x07, 0x31, 0xc4, 0x25, 0x17, 0xef, 0x58, 0x0c, 0x33, 0x25, 0xd4, 0xcd, 0xed, 0x2f, 0xca, 0xfc, 0xd9, 0x37, 0xf3, 0x1a, 0x05, 0x07, 0x48, 0xf9, 0xd8, 0x2f, 0xfc, 0xef, 0x09, 0xfc, 0x48, 0x49, 0x31, 0x30, 0xdc, 0x16, 0x5f, 0xe6, 0x2f, 0x29, 0x46, 0xf5, 0xf7, 0x0e, 0x09, 0x45, 0x1c, 0xd1, 0x81, 0x3e, 0xeb, 0xc9, 0xc4, 0xbc, 0x46, 0xc8, 0xf2, 0xd7, 0xb5, 0x1e, 0xe3, 0xff, 0x10, 0x25, 0xfa, 0xad, 0x15, 0xfb, 0xf4, 0xf1, 0x0a, 0xed, 0xe4, 0x3f, 0xa9, 0x0b, 0x13, 0x22, 0x1a, 0x04, 0xef, 0xdf, 0xae, 0x37, 0x19, 0xfa, 0x2d, 0x28, 0xe4, 0x0a, 0x20, 0x25, 0x31, 0xb2, 0x05, 0x24, 0x18, 0x17, 0x34, 0x12, 0x29, 0x21, 0xeb, 0x0c, 0xce, 0x24, 0x30, 0x0d, 0xbf, 0x06, 0xf7, 0x43, 0xfa, 0x19, 0xe6, 0x21, 0x11, 0xda, 0x29, 0x18, 0x50, 0x0b, 0xdb, 0xf0, 0x20, 0xfe, 0x7f, 0x6a, 0xc7, 0x05, 0xe0, 0x06, 0x11, 0x2a, 0xf7, 0xfc, 0x39, 0xb9, 0x2f, 0x7f, 0xf3, 0xd4, 0x2d, 0x1b, 0x26, 0x14, 0xfa, 0x43, 0xdc, 0xc0, 0x1e, 0x65, 0x51, 0x47, 0xba, 0x52, 0x01, 0x2e, 0xaf, 0x3e, 0xf1, 0x3c, 0x25, 0x25, 0xda, 0xf4, 0xf1, 0xa6, 0xb9, 0x8d, 0xb4, 0x05, 0xd3, 0xfa, 0xf7, 0x08, 0x25, 0xeb, 0x37, 0xf4, 0xdd, 0xe9, 0x27, 0xf7, 0xdc, 0x03, 0xc2, 0xff, 0xfd, 0x2a, 0x22, 0xf8, 0x4b, 0x18, 0xcc, 0xb5, 0xe4, 0xe4, 0x22, 0xf2, 0x49, 0x11, 0x27, 0x3b, 0xad, 0xf2, 0x1e, 0xce, 0xed, 0xf4, 0xf1, 0x1c, 0xb7, 0x12, 0x81, 0x35, 0x04, 0xe0, 0x29, 0xdb, 0x08, 0x0e, 0x57, 0xd8, 0x31, 0xfe, 0x4a, 0xec, 0xcb, 0xdd, 0xe4, 0x12, 0x58, 0x0b, 0x5c, 0xee, 0x19, 0x8e, 0xd5, 0x04, 0xdd, 0x5e, 0x43, 0xc6, 0xf2, 0xda, 0xa2, 0x3c, 0x38, 0x06, 0xd1, 0x36, 0x81, 0x02, 0x07, 0x00, 0xe3, 0xf6, 0xed, 0xf3, 0xb9, 0x1e, 0x29, 0xca, 0xee, 0xe8, 0xa6, 0xfc, 0x44, 0xc6, 0xd2, 0xcc, 0xc2, 0xba, 0x11, 0x7f, 0x2e, 0xe7, 0xf4, 0xf5, 0x16, 0x02, 0x48, 0x08, 0x42, 0x58, 0xca, 0xda, 0xe5, 0x10, 0xef, 0xc3, 0x3e, 0x52, 0xab, 0xf6, 0xf9, 0xfd, 0xcd, 0xec, 0x14, 0x33, 0x20, 0xfd, 0x04, 0x31, 0xe9, 0xeb, 0xbb, 0x0e, 0xb5, 0xf4, 0xfd, 0xc1, 0xc9, 0x03, 0x38, 0x07, 0x34, 0xf9, 0x25, 0x12, 0x2b, 0x23, 0x7f, 0xff, 0xfb, 0xf9, 0xc9, 0x00, 0x4e, 0x0e, 0xe6, 0x0f, 0xd4, 0xb6, 0x2d, 0xeb, 0x37, 0x0c, 0x2a, 0x0d, 0x08, 0x08, 0x3b, 0xed, 0x0c, 0x3a, 0x12, 0x31, 0xe0, 0xe7, 0xdf, 0x08, 0x0b, 0x05, 0x1f, 0x13, 0x11, 0x25, 0x0f, 0xef, 0xf8, 0x2a, 0x0f, 0x05, 0x0d, 0x3f, 0x0e, 0xa4, 0x02, 0x08, 0x04, 0x7f, 0xfb, 0x04, 0x1b, 0xce, 0xdd, 0xd3, 0xf9, 0x1e, 0xfa, 0xce, 0xf8, 0x93, 0x00, 0xe6, 0x33, 0x08, 0x15, 0x17, 0xfd, 0x0d, 0xf6, 0x14, 0xa9, 0xec, 0xe0, 0x2f, 0xd7, 0xb9, 0x03, 0x40, 0x14, 0xe8, 0xf5, 0xcd, 0xf2, 0xe9, 0x03, 0x20, 0x25, 0x50, 0xdb, 0xf6, 0xda, 0xb6, 0x38, 0xd8, 0x13, 0xcf, 0xd1, 0xaa, 0xd4, 0x10, 0xbc, 0x3f, 0x62, 0x08, 0xe2, 0xf4, 0x16, 0x35, 0x2d, 0x4e, 0xc9, 0x23, 0x22, 0x23, 0xf6, 0xcf, 0xce, 0xc1, 0xe4, 0x2d, 0x00, 0xee, 0xf3, 0x81, 0x1b, 0x13, 0x2f, 0x2c, 0x09, 0xff, 0xfb, 0x18, 0x0d, 0xf1, 0x51, 0x28, 0x1e, 0xbb, 0x50, 0x16, 0xee, 0xf6, 0xb1, 0x4f, 0x37, 0xfb, 0xde, 0xf2, 0xe2, 0x2f, 0x17, 0x59, 0xbd, 0x41, 0x8e, 0xe7, 0x2f, 0x0e, 0x05, 0xef, 0xf9, 0x04, 0xee, 0xee, 0x5b, 0x23, 0xce, 0x34, 0xca, 0x18, 0x22, 0x1b, 0xf8, 0x09, 0x3d, 0x7f, 0x3d, 0x64, 0xd0, 0xca, 0x18, 0x22, 0xed, 0xb9, 0x0d, 0x4b, 0xd3, 0x17, 0xfa, 0xf8, 0xec, 0xa4, 0xbe, 0x18, 0xe9, 0xd4, 0x03, 0xda, 0xff, 0xc6, 0xe0, 0xd3, 0x14, 0xca, 0xb6, 0x17, 0x7f, 0xe0, 0xba, 0x9a, 0xe0, 0xdf, 0xec, 0x24, 0xca, 0x63, 0xee, 0x20, 0xf6, 0xc2, 0xd3, 0x28, 0x4a, 0x34, 0xc5, 0xdd, 0xdb, 0xdb, 0xef, 0x9d, 0xd9, 0x0f, 0x32, 0x7f, 0x05, 0xfe, 0x38, 0x25, 0x18, 0x1b, 0xff, 0xdb, 0xd9, 0xf8, 0xc1, 0xcb, 0xdf, 0x1f, 0xe5, 0xf1, 0x02, 0x7c, 0x14, 0x40, 0x58, 0xd0, 0x1a, 0xf2, 0x2e, 0x3d, 0x17, 0xdd, 0x0e, 0x22, 0x41, 0x24, 0x0b, 0x39, 0x12, 0xf5, 0xe0, 0x28, 0x5a, 0x1b, 0x00, 0xbd, 0xee, 0x29, 0x37, 0xe1, 0x08, 0xf8, 0x6a, 0x17, 0x3c, 0x37, 0x7f, 0x0a, 0xe9, 0x2a, 0x2d, 0x1d, 0xfb, 0x19, 0xf1, 0x00, 0x57, 0x60, 0xf6, 0xc4, 0xb9, 0x34, 0x1b, 0xd9, 0x03, 0x00, 0xed, 0xe6, 0x20, 0xbc, 0xb5, 0xb4, 0xed, 0xd7, 0x4e, 0xe5, 0xd6, 0x09, 0xfb, 0x37, 0xeb, 0xda, 0xe3, 0x0c, 0x0e, 0xf7, 0xf2, 0xf3, 0x4a, 0x16, 0xd8, 0x3a, 0xf9, 0xfe, 0xd5, 0x81, 0xd4, 0xf7, 0x00, 0x0e, 0x0a, 0xa2, 0x27, 0x23, 0x1e, 0x1d, 0x23, 0xe9, 0x19, 0x21, 0xba, 0x0a, 0x23, 0x4e, 0xfd, 0x29, 0x30, 0xf9, 0x09, 0xc3, 0xad, 0x57, 0x16, 0x42, 0x09, 0x40, 0xf4, 0x17, 0xdb, 0x1b, 0x9d, 0x04, 0x14, 0x08, 0x51, 0x13, 0xed, 0x41, 0x0a, 0x4e, 0xbf, 0x51, 0x13, 0xcb, 0x0f, 0x02, 0xc4, 0xf1, 0xd1, 0x13, 0xb8, 0xfd, 0xb2, 0xe3, 0xb5, 0xc1, 0x16, 0x32, 0x00, 0x20, 0x16, 0x7f, 0x1a, 0x19, 0xf4, 0xc4, 0xf0, 0x29, 0xcd, 0xb9, 0x1b, 0xbe, 0x15, 0x06, 0xc1, 0xc8, 0x23, 0x06, 0x1d, 0x05, 0x25, 0xfc, 0xe8, 0x3c, 0xdb, 0x21, 0x4f, 0xac, 0x08, 0x11, 0xa3, 0xd3, 0xff, 0xf4, 0xe1, 0x0a, 0x55, 0x18, 0x00, 0x0c, 0xfb, 0x81, 0xce, 0x03, 0x03, 0x21, 0xde, 0x0c, 0x23, 0x10, 0xd7, 0x0c, 0x1b, 0xdd, 0x10, 0xd2, 0x03, 0xf8, 0x36, 0x10, 0x0e, 0xf5, 0x15, 0x12, 0xda, 0xf4, 0xf2, 0xc2, 0xf1, 0xf4, 0xdd, 0x1c, 0x0f, 0xf9, 0x37, 0x3b, 0x38, 0x31, 0xf9, 0x43, 0xc5, 0xf0, 0x1c, 0x34, 0xf3, 0x01, 0xcb, 0x0c, 0x01, 0xef, 0x20, 0xed, 0x24, 0xe9, 0xcc, 0xbc, 0x44, 0xc5, 0xc8, 0xfd, 0x08, 0x16, 0xbd, 0x7f, 0xf8, 0x54, 0xd4, 0xef, 0x16, 0xf5, 0x9e, 0xb2, 0xe9, 0x47, 0x16, 0xfa, 0xb5, 0x4f, 0xc1, 0xd3, 0x2f, 0xe8, 0xea, 0x0a, 0xe8, 0xf9, 0xf7, 0x07, 0xfb, 0xe7, 0xfd, 0x27, 0x0f, 0x01, 0x07, 0x2d, 0x2a, 0xd0, 0x02, 0xfe, 0x0c, 0x22, 0xdf, 0xa1, 0x81, 0x2f, 0xfc, 0x03, 0x01, 0xe1, 0xff, 0x0d, 0x2a, 0x11, 0x20, 0xee, 0xe6, 0x0f, 0x14, 0xeb, 0x06, 0x27, 0xf7, 0xec, 0x24, 0xfe, 0x02, 0x1a, 0x07, };
const int32_t bias14[32] = {-12131, 43072, 16345, -40156, -20834, 18077, 4487, 8467, -38455, -1192, -23338, 2631, 18944, -3730, -40887, -89511, -27888, 26161, -5413, -2176, -63001, 9147, -15989, -41532, 34824, -55871, -40472, 4498, 6284, 29147, -221, 5910, };
const float scales14[32] = {0.0021725787412547456, 0.002478179672401831, 0.0017584355857713464, 0.002559346870512881, 0.002155432478485333, 0.0010141101240122873, 0.0027286930765135923, 0.0034261758801813077, 0.002580474238870732, 0.002403858465476104, 0.0028806642667020066, 0.0027964382719218336, 0.002725735704638603, 0.0028503769260192916, 0.0027881294652254357, 0.002650560048547909, 0.002510414697485561, 0.0028494580830551713, 0.002133513412993418, 0.002444215318094384, 0.0028884973254431874, 0.0027387695203595483, 0.0027750436601765623, 0.0021753920023610913, 0.002350586734125682, 0.0030975296305225577, 0.0026411196986896213, 0.0024000349696397007, 0.0027234842931112705, 0.0033145433007417254, 0.0022958957853321683, 0.0030393599572252172, };
const int32_t shift14[32] = {-8, -8, -9, -8, -8, -9, -8, -8, -8, -8, -8, -8, -8, -8, -8, -8, -8, -8, -8, -8, -8, -8, -8, -8, -8, -8, -8, -8, -8, -8, -8, -8, };
const int32_t multiplier14[32] = {1194387794, 1362393683, 1933420373, 1407015822, 1184961536, 1115025873, 1500114883, 1883560110, 1418630715, 1321535167, 1583661928, 1537358198, 1498489051, 1567011287, 1532790383, 1457160797, 1380115075, 1566506148, 1172911403, 1343721582, 1587968198, 1505654467, 1525596386, 1195934401, 1292248723, 1702884923, 1451970910, 1319433178, 1497251324, 1822189450, 1262182056, 1670905807, };
